<unk>	0
<s>	0
</s>	0
▁the	-3.2164
s	-3.38846
.	-3.5307
,	-3.53694
▁of	-3.86709
▁in	-3.979
>	-4.04018
▁<	-4.04078
▁and	-4.12557
▁a	-4.34967
▁to	-4.56407
▁is	-4.71691
▁	-4.72547
▁was	-4.89441
▁The	-5.06288
:	-5.07073
response	-5.12875
instruction	-5.13638
input	-5.13666
-	-5.19975
▁(	-5.30376
ed	-5.44358
▁for	-5.4454
ing	-5.45858
▁as	-5.47921
▁this	-5.53533
▁by	-5.54911
'	-5.58565
▁on	-5.59477
)	-5.6231
▁from	-5.71551
▁words	-5.73521
▁simple	-5.74096
▁that	-5.74513
▁topic	-5.75408
▁Explain	-5.75821
▁with	-5.77881
d	-5.78115
▁are	-5.82892
▁an	-5.90647
▁question	-5.91297
e	-5.91839
?	-5.92613
▁Answer	-5.9333
▁"	-5.98249
▁He	-5.98363
▁using	-5.98856
er	-6.01809
▁In	-6.05228
y	-6.05603
▁It	-6.09254
▁context	-6.09537
▁Question	-6.10626
▁Context	-6.10719
▁at	-6.12928
n	-6.13211
▁or	-6.14963
▁A	-6.16626
t	-6.21295
ly	-6.21413
al	-6.26141
▁be	-6.27633
a	-6.34471
th	-6.34739
▁which	-6.36809
▁it	-6.36892
▁were	-6.38513
"	-6.40501
o	-6.42022
▁his	-6.4548
i	-6.47414
▁has	-6.48267
▁also	-6.51208
in	-6.55289
▁he	-6.60749
es	-6.65211
▁have	-6.6827
r	-6.70215
▁first	-6.7294
or	-6.75173
▁American	-6.75791
▁not	-6.7582
▁What	-6.77752
S	-6.78644
▁one	-6.8125
▁S	-6.81935
),	-6.85787
g	-6.86769
▁their	-6.8707
▁18	-6.92575
▁re	-6.93854
▁had	-6.94271
▁its	-6.95534
▁other	-6.95955
an	-6.96125
▁can	-6.96218
▁known	-6.98356
re	-6.99821
le	-7.0074
on	-7.0233
;	-7.02358
▁–	-7.02948
c	-7.03486
).	-7.04788
▁but	-7.05044
l	-7.05336
▁de	-7.05941
m	-7.05969
ic	-7.08544
▁United	-7.09722
▁people	-7.10163
▁who	-7.10375
▁most	-7.12567
▁many	-7.14957
us	-7.15003
▁used	-7.1593
k	-7.16672
ation	-7.17503
▁two	-7.17878
st	-7.17892
▁been	-7.18885
▁She	-7.20042
▁New	-7.20241
C	-7.2033
||	-7.2089
en	-7.20956
▁C	-7.23938
▁more	-7.25295
▁into	-7.2566
▁city	-7.26231
▁I	-7.27979
ers	-7.28015
▁E	-7.28116
▁such	-7.28316
u	-7.28848
▁|-	-7.28865
▁called	-7.29649
▁they	-7.29695
▁This	-7.31304
▁all	-7.32149
▁after	-7.32308
ar	-7.33845
ra	-7.34332
na	-7.35402
el	-7.36189
▁what	-7.36496
h	-7.36602
ion	-7.37058
▁born	-7.37542
▁States	-7.37945
▁over	-7.39074
▁time	-7.39188
▁about	-7.39195
▁her	-7.39523
b	-7.39533
▁than	-7.39871
▁between	-7.40063
it	-7.40286
ta	-7.40906
▁when	-7.40989
▁did	-7.4189
li	-7.42289
te	-7.44483
f	-7.4615
▁1	-7.46273
la	-7.46556
▁O	-7.46627
▁made	-7.46867
ia	-7.46929
▁F	-7.47355
ri	-7.4794
ck	-7.48095
▁U	-7.4828
▁part	-7.48434
ro	-7.48751
to	-7.49027
il	-7.49619
z	-7.49711
P	-7.49854
▁during	-7.50396
▁D	-7.50429
▁name	-7.505
▁B	-7.51224
ma	-7.5149
ne	-7.52027
▁some	-7.53019
born	-7.53783
ur	-7.55249
p	-7.56443
▁s	-7.56588
B	-7.56675
▁only	-7.56896
is	-7.56962
x	-7.57041
▁They	-7.57809
D	-7.58057
▁2	-7.58853
A	-7.59025
ist	-7.59289
ian	-7.6014
at	-7.60185
▁state	-7.60282
▁e	-7.60302
T	-7.60665
▁G	-7.60741
ton	-7.62488
▁years	-7.62511
▁new	-7.62557
▁number	-7.62752
▁movie	-7.63415
M	-7.63517
ry	-7.63735
man	-7.6414
▁became	-7.64531
▁T	-7.65417
ity	-7.6548
et	-7.65541
ent	-7.66262
ive	-7.66337
/	-7.66748
▁up	-7.67472
2	-7.68361
I	-7.687
E	-7.70669
▁References	-7.71992
▁K	-7.73141
▁do	-7.73268
▁science	-7.73863
▁Re	-7.73909
ism	-7.74722
▁year	-7.74762
F	-7.75236
▁may	-7.75265
▁century	-7.75526
lo	-7.75546
▁P	-7.75598
de	-7.7572
ge	-7.7593
▁under	-7.76275
w	-7.76417
▁use	-7.77535
▁played	-7.77727
▁would	-7.77943
▁there	-7.78222
ment	-7.78313
▁War	-7.78983
▁out	-7.79049
▁Other	-7.79681
▁British	-7.80378
ol	-7.80694
the	-7.80904
▁3	-7.81774
▁where	-7.82367
N	-7.82557
▁(19	-7.82696
1	-7.82699
▁17	-7.83169
▁R	-7.83337
▁world	-7.84255
▁three	-7.84271
▁un	-7.84675
–	-7.85113
▁through	-7.85251
▁died	-7.85294
▁La	-7.8543
able	-7.85463
se	-7.8573
▁May	-7.87107
▁Ma	-7.8714
▁system	-7.87545
▁no	-7.87558
▁On	-7.87597
co	-7.88302
R	-7.88364
ke	-7.88392
▁World	-7.88566
▁area	-7.88589
as	-7.88644
▁well	-7.88796
▁she	-7.88798
▁League	-7.88886
▁government	-7.88988
▁M	-7.89198
▁University	-7.89205
▁so	-7.89467
ch	-7.89701
▁January	-7.8986
▁Ba	-7.89975
id	-7.90421
▁Le	-7.90806
▁De	-7.90933
me	-7.91201
ga	-7.91267
ad	-7.9162
▁until	-7.92384
▁co	-7.92919
O	-7.93285
ary	-7.93648
ir	-7.93963
▁water	-7.9412
sh	-7.94215
ine	-7.94261
▁population	-7.94535
".	-7.94706
um	-7.94947
▁including	-7.95065
ter	-7.95433
▁English	-7.95467
▁W	-7.95729
L	-7.95901
▁4	-7.95912
ha	-7.96521
▁group	-7.96637
▁simply	-7.9712
ll	-7.97676
▁explain	-7.98208
G	-7.98309
▁music	-7.98445
am	-7.98455
▁t	-7.98536
ti	-7.98845
un	-7.99112
▁later	-7.99389
▁different	-7.99411
▁being	-7.99415
▁For	-7.99722
▁often	-7.99951
▁March	-8.00147
H	-8.00249
tic	-8.00284
▁team	-8.00338
▁August	-8.00411
▁both	-8.00447
▁An	-8.01061
▁these	-8.01222
▁million	-8.01352
▁When	-8.01491
▁national	-8.01499
▁g	-8.0183
3	-8.01896
▁end	-8.0225
▁French	-8.02543
▁North	-8.0283
▁second	-8.02915
▁September	-8.03242
va	-8.03243
▁series	-8.0354
▁June	-8.04125
di	-8.04556
▁City	-8.04758
▁because	-8.04838
age	-8.05019
▁St	-8.05125
▁will	-8.05182
ul	-8.05186
▁early	-8.05487
é	-8.05506
ce	-8.05538
▁South	-8.05836
ate	-8.06115
▁John	-8.06304
▁York	-8.0645
▁form	-8.06617
▁As	-8.06659
▁July	-8.0694
▁5	-8.06963
▁Ha	-8.0706
no	-8.07139
mo	-8.07247
▁since	-8.07351
▁same	-8.07356
im	-8.07479
▁National	-8.07595
▁released	-8.08061
▁April	-8.08099
▁television	-8.08194
▁life	-8.08256
▁work	-8.08326
vi	-8.08543
▁N	-8.08562
▁October	-8.08617
son	-8.08899
▁L	-8.09185
▁There	-8.0972
▁H	-8.09787
▁20	-8.09927
▁won	-8.10109
▁con	-8.10138
▁Roman	-8.10268
ci	-8.10373
▁them	-8.10667
▁while	-8.10749
ni	-8.10788
rowspan	-8.11189
▁16	-8.11431
▁found	-8.11643
▁Explanation	-8.12143
▁-	-8.12144
▁period	-8.12408
▁large	-8.12684
4	-8.13101
▁November	-8.13739
ated	-8.13848
▁like	-8.13869
▁Al	-8.14093
▁December	-8.14196
▁German	-8.14264
▁war	-8.14511
▁football	-8.1455
land	-8.15089
▁example	-8.15456
▁country	-8.15463
▁February	-8.15937
▁Me	-8.16023
ve	-8.16322
5	-8.16356
▁Na	-8.16373
est	-8.16449
▁high	-8.16557
ant	-8.16611
ies	-8.16731
ut	-8.16937
▁10	-8.1708
ka	-8.17231
▁movies	-8.17279
nd	-8.17574
ot	-8.17664
ous	-8.18166
om	-8.18238
▁long	-8.18241
▁7	-8.18248
ang	-8.18339
▁Ra	-8.18447
▁Ro	-8.19134
▁member	-8.19153
▁include	-8.19271
",	-8.19547
▁15	-8.19563
be	-8.19838
▁very	-8.19989
▁His	-8.19996
▁began	-8.20107
▁based	-8.20374
]	-8.20926
▁dis	-8.21031
▁websites	-8.21034
▁age	-8.21056
go	-8.22099
▁album	-8.22116
▁each	-8.22173
▁major	-8.22507
▁To	-8.22526
▁any	-8.22807
ance	-8.2287
▁against	-8.22991
▁largest	-8.23083
▁several	-8.23184
ac	-8.23419
▁At	-8.24055
▁Sa	-8.24125
▁before	-8.24144
da	-8.24172
▁c	-8.2433
0	-8.24414
▁language	-8.24665
▁births	-8.24864
▁power	-8.25012
▁pro	-8.25062
▁around	-8.25238
▁Co	-8.25247
▁home	-8.25504
▁Mar	-8.25631
▁f	-8.2581
▁6	-8.25812
ted	-8.26024
v	-8.26231
ty	-8.2662
▁does	-8.26912
▁J	-8.27265
▁player	-8.274
▁best	-8.27423
▁France	-8.27605
ba	-8.27705
▁four	-8.27707
ca	-8.27847
▁12	-8.28334
▁After	-8.28864
▁season	-8.29109
▁8	-8.29161
▁single	-8.29242
▁d	-8.29269
▁small	-8.29597
7	-8.29666
W	-8.29732
▁Pa	-8.29739
▁Di	-8.30621
▁make	-8.30639
▁species	-8.30778
▁place	-8.3092
▁former	-8.31507
▁term	-8.31745
▁West	-8.32207
▁pre	-8.32254
▁How	-8.32587
▁Mo	-8.3268
▁career	-8.32747
▁game	-8.32767
▁energy	-8.33034
▁m	-8.3388
▁ma	-8.34577
ie	-8.34756
j	-8.35346
pe	-8.35408
▁family	-8.35481
▁land	-8.35749
▁Who	-8.36044
▁b	-8.36105
▁London	-8.36432
der	-8.36529
os	-8.36682
▁19	-8.36846
▁Se	-8.36922
▁Be	-8.36933
pa	-8.3698
V	-8.37148
hi	-8.37195
▁public	-8.37269
▁named	-8.37755
▁Some	-8.37795
▁European	-8.37878
▁p	-8.38086
ak	-8.38246
▁important	-8.38529
▁Bo	-8.3855
▁band	-8.38644
▁could	-8.38662
▁much	-8.38788
K	-8.3881
▁political	-8.38827
▁President	-8.38965
▁Con	-8.39077
▁light	-8.4011
per	-8.40283
▁region	-8.40495
▁per	-8.40556
6	-8.40942
U	-8.41454
▁England	-8.41522
▁death	-8.42197
▁started	-8.42264
▁common	-8.42385
em	-8.4255
he	-8.42785
▁These	-8.42935
▁song	-8.42974
▁usually	-8.43198
do	-8.43256
▁created	-8.43655
▁o	-8.43902
▁Greek	-8.43957
▁main	-8.44182
▁show	-8.44195
ver	-8.44214
▁type	-8.44319
▁law	-8.44554
▁di	-8.44848
▁human	-8.44868
▁non	-8.44964
com	-8.45
ho	-8.45183
mi	-8.45231
▁However	-8.45271
▁River	-8.458
▁then	-8.45944
▁9	-8.46068
▁Europe	-8.46203
▁V	-8.46362
▁en	-8.4649
od	-8.46543
ster	-8.46773
▁14	-8.47147
▁set	-8.47223
▁Japan	-8.47486
▁Ta	-8.47697
▁Ka	-8.48014
les	-8.48108
ig	-8.48377
▁America	-8.48506
▁countries	-8.48534
▁Vi	-8.48805
ized	-8.48824
▁person	-8.49232
▁Ca	-8.49446
ating	-8.4947
J	-8.49607
▁school	-8.49757
▁body	-8.499
ner	-8.49919
▁him	-8.49922
."	-8.50067
lu	-8.50142
up	-8.50226
tra	-8.50309
▁back	-8.50567
gu	-8.50629
▁India	-8.50705
ling	-8.51135
▁politician	-8.51151
▁13	-8.51412
▁11	-8.51483
▁capital	-8.51505
one	-8.51609
ting	-8.51698
9	-8.51733
ard	-8.51797
▁Car	-8.52064
ts	-8.52181
▁King	-8.52682
op	-8.52685
dy	-8.52715
▁Japanese	-8.52796
bo	-8.52988
▁now	-8.53184
po	-8.53506
▁East	-8.53585
▁Li	-8.54272
▁modern	-8.54469
ber	-8.54516
ish	-8.54607
▁Lo	-8.54693
▁popular	-8.55233
ial	-8.5544
ally	-8.55629
▁Germany	-8.5588
▁mo	-8.55909
▁history	-8.55965
▁military	-8.56005
ence	-8.56182
ag	-8.56317
ill	-8.56322
▁own	-8.56442
ph	-8.56578
▁China	-8.56623
▁day	-8.56742
▁become	-8.56768
▁II	-8.56919
▁within	-8.56943
sa	-8.57052
au	-8.57204
▁live	-8.57238
▁rock	-8.57274
▁During	-8.57323
▁Z	-8.57538
▁film	-8.57575
▁San	-8.57925
min	-8.57969
▁air	-8.58572
▁held	-8.5871
mer	-8.58848
▁2020	-8.59291
—	-8.59386
und	-8.59601
▁play	-8.59611
▁those	-8.59699
▁control	-8.59749
▁process	-8.5994
▁All	-8.59976
▁US	-8.60048
▁No	-8.6021
▁company	-8.60231
▁State	-8.60342
▁Options	-8.60384
▁Empire	-8.60412
▁led	-8.60441
▁late	-8.60493
ite	-8.60716
▁role	-8.60718
▁if	-8.60791
▁Party	-8.60804
▁Her	-8.61013
▁me	-8.61032
tion	-8.61077
tt	-8.61492
▁Pro	-8.61524
▁located	-8.61751
▁So	-8.61801
▁deaths	-8.61835
▁Chinese	-8.62134
▁among	-8.62306
▁art	-8.62392
▁Kingdom	-8.62476
mp	-8.62483
▁last	-8.62516
ness	-8.62521
▁|19	-8.62545
▁members	-8.6269
▁Ga	-8.62736
▁short	-8.62967
ach	-8.63025
▁History	-8.63071
▁singer	-8.63118
▁Ho	-8.63545
8	-8.63617
▁town	-8.63726
mon	-8.6391
ud	-8.64131
▁Po	-8.64155
wa	-8.64172
▁written	-8.64206
con	-8.64612
and	-8.64826
bi	-8.64901
▁Pi	-8.64928
▁po	-8.65005
▁even	-8.65013
▁how	-8.65573
▁order	-8.65609
tal	-8.65652
▁near	-8.65909
▁district	-8.66019
▁five	-8.66173
▁local	-8.66325
▁professional	-8.66362
||2	-8.66808
▁st	-8.6689
▁built	-8.67
▁another	-8.67282
▁still	-8.67361
▁se	-8.67387
▁House	-8.67426
▁development	-8.6747
ja	-8.6761
tu	-8.67751
ex	-8.67769
▁support	-8.6777
ley	-8.67799
▁third	-8.67843
ities	-8.68002
▁social	-8.68007
ya	-8.68118
men	-8.68666
▁along	-8.68785
▁north	-8.688
▁children	-8.69114
ff	-8.69532
▁considered	-8.69557
▁official	-8.69607
▁club	-8.69766
way	-8.69848
▁Ar	-8.69952
▁Gu	-8.69969
que	-8.69992
ah	-8.70096
▁line	-8.70215
▁head	-8.70453
▁bo	-8.70559
▁produced	-8.70566
ther	-8.70613
ap	-8.71104
za	-8.71219
▁man	-8.71315
▁r	-8.71447
▁founded	-8.71663
rs	-8.71759
▁Mi	-8.7204
▁due	-8.72193
▁car	-8.725
▁way	-8.72587
▁By	-8.7267
ron	-8.72674
▁Indian	-8.72803
▁Church	-8.72931
ven	-8.72989
▁following	-8.72991
▁means	-8.73057
ger	-8.73304
ina	-8.73306
▁One	-8.73401
▁sub	-8.73422
▁food	-8.73444
▁Russian	-8.73565
▁actor	-8.73607
che	-8.73712
▁Su	-8.73826
▁la	-8.74029
▁Ri	-8.74212
▁El	-8.74281
ning	-8.743
▁down	-8.74336
▁Australia	-8.74446
tri	-8.7447
▁n	-8.74479
00	-8.74745
▁Union	-8.74747
bu	-8.74984
▁County	-8.75089
▁video	-8.75118
▁developed	-8.75143
▁established	-8.75242
▁less	-8.75341
▁Soviet	-8.75362
▁word	-8.75601
by	-8.75698
▁groups	-8.75746
▁Which	-8.75767
den	-8.76175
▁areas	-8.76182
▁w	-8.76268
▁International	-8.76432
▁al	-8.765
▁Ne	-8.76561
vo	-8.76873
▁2000	-8.76981
0,000	-8.7701
we	-8.77049
’	-8.77085
▁h	-8.77131
▁south	-8.77187
▁title	-8.77271
▁th	-8.77289
ium	-8.77495
▁km	-8.77535
▁sp	-8.77699
▁William	-8.77709
▁general	-8.77835
▁states	-8.78065
▁given	-8.78123
gen	-8.78198
▁book	-8.78209
▁Do	-8.78248
▁served	-8.78313
▁X	-8.78509
ction	-8.78578
▁i	-8.78593
▁Th	-8.78627
▁School	-8.78653
▁came	-8.78697
▁||	-8.78702
chi	-8.79058
ology	-8.79444
▁Bi	-8.79642
fi	-8.79719
▁Go	-8.79743
mb	-8.79784
tes	-8.79974
▁color	-8.80195
▁took	-8.80204
▁similar	-8.80398
▁formed	-8.80403
gi	-8.80512
▁said	-8.80699
▁every	-8.81114
▁'	-8.81294
ide	-8.81562
The	-8.81579
▁Jo	-8.81601
▁side	-8.8166
▁Republic	-8.81711
▁international	-8.81848
ki	-8.81935
▁culture	-8.82074
▁Many	-8.82345
▁top	-8.8244
▁California	-8.82745
▁2005	-8.8285
qui	-8.83137
ru	-8.83235
▁total	-8.83401
nt	-8.83519
▁directed	-8.83578
cy	-8.8359
ham	-8.83901
▁pa	-8.84044
ship	-8.84048
▁1,	-8.84177
▁current	-8.8459
ey	-8.8472
▁k	-8.84721
▁needed	-8.85003
▁few	-8.85066
▁1990	-8.85194
▁present	-8.85337
▁Club	-8.85361
▁help	-8.85483
▁record	-8.85717
▁bi	-8.85907
ding	-8.85913
▁famous	-8.86075
▁published	-8.86158
▁left	-8.86319
▁Paris	-8.86404
mar	-8.86631
▁2010	-8.86832
▁Man	-8.87031
▁Park	-8.87274
tor	-8.87376
▁Pe	-8.87494
▁George	-8.87573
▁times	-8.8771
▁Ja	-8.87817
▁ex	-8.87864
line	-8.87984
tro	-8.88224
▁African	-8.88267
▁cells	-8.88438
led	-8.88526
ight	-8.88527
▁study	-8.88578
▁movement	-8.88616
ell	-8.88674
ea	-8.88728
▁son	-8.88953
ev	-8.89065
▁Cup	-8.89268
▁2008	-8.89288
▁women	-8.89304
lic	-8.89315
▁natural	-8.89427
▁ca	-8.89471
ical	-8.89886
rd	-8.90012
▁Great	-8.90158
▁People	-8.90246
▁1980	-8.90616
fa	-8.90682
iv	-8.90769
ou	-8.90983
ice	-8.90989
▁Most	-8.91282
▁BC	-8.91351
pp	-8.91456
▁Canada	-8.91528
▁Christian	-8.91531
▁father	-8.91584
▁various	-8.9177
ow	-8.9179
▁Canadian	-8.91888
▁Spanish	-8.91915
▁field	-8.91922
▁went	-8.92031
")	-8.92088
▁li	-8.92152
▁original	-8.92375
ions	-8.92463
less	-8.9249
▁Award	-8.92585
▁province	-8.92704
▁without	-8.9273
▁forces	-8.92745
▁Hu	-8.92865
▁take	-8.92909
gar	-8.9296
tan	-8.93027
▁river	-8.93054
▁change	-8.93093
shi	-8.93096
▁Bar	-8.93139
▁Italian	-8.93205
ng	-8.9326
▁reasoning	-8.9326
▁sometimes	-8.9326
▁From	-8.93298
▁wrote	-8.93318
ft	-8.9339
▁sea	-8.9341
▁works	-8.93493
ists	-8.93512
▁Cha	-8.93651
▁du	-8.93756
▁College	-8.93782
oc	-8.93881
▁games	-8.93889
▁Minister	-8.93956
▁writer	-8.94014
▁free	-8.9407
ko	-8.94114
ub	-8.9423
pt	-8.94244
▁point	-8.94681
▁Ni	-8.94746
hu	-8.94851
pi	-8.94989
rt	-8.95048
▁men	-8.95146
▁included	-8.95172
▁old	-8.95175
▁2012	-8.95194
▁mi	-8.95259
ai	-8.95329
▁1970	-8.95394
▁see	-8.95395
▁moved	-8.95438
▁2019	-8.95699
ure	-8.95924
▁living	-8.96023
▁parts	-8.96028
▁received	-8.96055
▁version	-8.96114
▁2004	-8.96193
▁off	-8.96477
50	-8.96632
▁result	-8.96742
▁Da	-8.96842
▁president	-8.97191
▁white	-8.97235
▁cl	-8.9725
▁just	-8.97369
▁position	-8.97409
▁James	-8.97665
▁standard	-8.97717
ep	-8.9776
▁plants	-8.97864
▁cell	-8.97868
nk	-8.9787
▁service	-8.97939
▁model	-8.97963
▁chemical	-8.98066
han	-8.98077
▁30	-8.98083
cl	-8.98107
ture	-8.98405
▁Africa	-8.98439
▁General	-8.98553
▁stage	-8.98676
▁island	-8.98879
▁Ru	-8.98933
▁building	-8.98955
val	-8.99081
▁we	-8.99278
▁special	-8.99792
ign	-8.99833
▁Ko	-8.9987
▁flow	-8.99919
ler	-9
▁Ad	-9.0012
▁Britain	-9.00157
ations	-9.00235
▁post	-9.00261
ative	-9.00465
▁plant	-9.00532
▁&	-9.00662
▁Queen	-9.00711
▁|	-9.00712
▁With	-9.00835
▁office	-9.00881
▁2017	-9.00884
lie	-9.00965
▁central	-9.01047
▁Te	-9.01058
lin	-9.01157
▁computer	-9.01315
▁25	-9.0133
▁center	-9.01427
▁Western	-9.01693
▁Mac	-9.01735
▁go	-9.01922
du	-9.01938
▁God	-9.01941
▁Han	-9.0199
▁rate	-9.02039
▁Gra	-9.02052
▁Catholic	-9.02111
▁2006	-9.0212
▁metal	-9.0215
▁space	-9.02166
▁black	-9.02238
▁Bu	-9.02334
▁2021	-9.02379
▁court	-9.02576
▁2018	-9.02646
▁character	-9.02918
▁Air	-9.03033
king	-9.03144
▁Paul	-9.03166
▁sa	-9.03231
▁range	-9.03356
▁market	-9.03396
▁disease	-9.03403
▁style	-9.03556
▁level	-9.03644
▁economic	-9.03701
▁plays	-9.03855
▁six	-9.04002
▁although	-9.04087
ong	-9.04245
▁together	-9.04281
▁religious	-9.04388
ward	-9.04392
▁action	-9.04546
▁production	-9.04566
20	-9.04572
||3	-9.04713
ana	-9.04741
our	-9.04778
▁cities	-9.04816
tter	-9.04837
ten	-9.04846
▁According	-9.04884
▁hand	-9.05093
▁you	-9.05191
▁ba	-9.05219
▁Victoria	-9.05288
▁lead	-9.05341
▁list	-9.05381
▁2016	-9.0539
day	-9.05903
▁worked	-9.05961
▁1960	-9.05984
ful	-9.06023
▁Ch	-9.06116
▁party	-9.06162
▁west	-9.06245
▁Lu	-9.0641
io	-9.06474
act	-9.06498
▁Per	-9.06538
▁ha	-9.06554
▁force	-9.06584
▁Army	-9.06842
si	-9.06851
▁station	-9.06852
▁get	-9.06883
ov	-9.06889
▁making	-9.06985
time	-9.0702
▁Robert	-9.07105
ze	-9.07518
▁red	-9.07607
ab	-9.07701
▁imp	-9.07956
▁director	-9.07996
▁2003	-9.08117
▁however	-9.08125
▁Fa	-9.08176
ise	-9.08191
.[	-9.08298
▁l	-9.08374
ran	-9.08445
▁caused	-9.08472
▁final	-9.08725
lan	-9.08829
▁research	-9.09047
▁100	-9.09053
▁drama	-9.09056
▁kind	-9.09151
▁ten	-9.09159
10	-9.09173
ip	-9.09228
▁Wa	-9.09255
▁east	-9.09476
30	-9.0951
▁inter	-9.09543
▁must	-9.09589
▁border	-9.09599
▁election	-9.09647
▁good	-9.09805
tar	-9.09809
dic	-9.09905
▁Can	-9.0996
▁We	-9.09971
▁2001	-9.10121
side	-9.10222
▁Sch	-9.10418
ization	-9.10487
▁Sp	-9.10639
▁university	-9.10647
cent	-9.10668
ct	-9.1078
▁half	-9.10909
▁Italy	-9.10986
▁vi	-9.10992
nder	-9.11049
▁blood	-9.11268
▁21	-9.11508
▁should	-9.11684
▁lived	-9.11732
ins	-9.11751
▁produce	-9.11772
▁trade	-9.1181
tch	-9.12008
▁race	-9.12046
▁close	-9.12124
▁Latin	-9.1217
▁highest	-9.12224
▁Earth	-9.12241
▁Act	-9.12376
▁author	-9.12456
▁mother	-9.1255
▁female	-9.12731
▁site	-9.1277
ji	-9.12806
▁average	-9.12872
▁Cor	-9.12913
▁education	-9.13002
="2"|	-9.13161
-19	-9.13254
▁includes	-9.13256
▁act	-9.13259
▁languages	-9.1326
gg	-9.1329
▁low	-9.13456
▁right	-9.13587
▁Ge	-9.13625
▁Dutch	-9.13703
▁Council	-9.13765
▁app	-9.13876
▁Asia	-9.13892
▁increase	-9.13932
▁great	-9.13979
▁Australian	-9.14078
▁host	-9.14112
▁2011	-9.14113
▁design	-9.14134
▁actress	-9.14145
▁Chicago	-9.14167
red	-9.1418
▁actors	-9.14206
pl	-9.14358
tin	-9.14693
ile	-9.14704
colspan	-9.14762
▁animals	-9.14789
▁across	-9.14811
▁If	-9.14907
ual	-9.14927
ries	-9.14969
ring	-9.14985
fe	-9.15135
▁thought	-9.15157
▁influence	-9.15294
▁2013	-9.15374
▁Bro	-9.15618
▁Am	-9.15689
▁Dr	-9.15798
á	-9.15827
▁real	-9.15901
▁2002	-9.15912
ration	-9.16024
▁event	-9.16036
▁sound	-9.16152
▁Early	-9.16206
ple	-9.16207
ay	-9.16255
▁view	-9.16288
▁radio	-9.16331
ize	-9.16375
▁having	-9.16386
▁strong	-9.16398
▁need	-9.16603
▁le	-9.16615
▁amount	-9.16631
▁Where	-9.16739
vis	-9.16824
▁house	-9.16916
▁Charles	-9.17041
▁start	-9.17113
▁Island	-9.17175
▁married	-9.17203
par	-9.1731
▁days	-9.17342
▁students	-9.17477
burg	-9.17479
▁higher	-9.1755
▁Central	-9.17595
▁date	-9.1788
ified	-9.17885
ius	-9.17932
▁generally	-9.17968
▁elected	-9.18156
ung	-9.18272
▁northern	-9.18286
▁move	-9.18367
▁though	-9.18383
▁seen	-9.18406
▁department	-9.18632
▁especially	-9.18671
ns	-9.18697
▁gas	-9.18947
▁studio	-9.18955
▁Pre	-9.19029
▁text	-9.19086
▁rule	-9.19151
bb	-9.19204
▁em	-9.19467
▁southern	-9.19555
▁rights	-9.19565
▁Si	-9.19596
▁throughout	-9.19618
▁attack	-9.19833
▁far	-9.203
▁meaning	-9.20321
ā	-9.20358
serv	-9.20439
▁24	-9.20447
▁2014	-9.20483
port	-9.20535
▁stars	-9.20712
▁Red	-9.20807
out	-9.20856
▁announced	-9.21025
ving	-9.21208
▁songs	-9.21344
ves	-9.21494
▁either	-9.21629
▁mid	-9.21705
▁systems	-9.21742
▁leader	-9.21767
▁producer	-9.21781
▁cause	-9.21792
▁mostly	-9.21795
▁travel	-9.21834
▁Royal	-9.21937
▁Tri	-9.21952
res	-9.21965
▁run	-9.21989
="2"|-||	-9.22054
▁comedy	-9.22366
car	-9.22429
▁ground	-9.22543
ku	-9.22692
▁Sun	-9.22697
▁below	-9.22779
▁Living	-9.2278
▁Mexico	-9.22837
▁statistics	-9.22889
▁network	-9.2289
ator	-9.23062
nes	-9.23082
citation	-9.23198
fin	-9.23317
▁media	-9.23339
▁certain	-9.23356
▁forms	-9.23368
▁Mu	-9.23385
ren	-9.23672
▁federal	-9.23695
▁Col	-9.23707
▁2,	-9.23826
▁2022	-9.24021
▁Sea	-9.24071
▁case	-9.24112
▁Academy	-9.24166
▁Hi	-9.24339
▁army	-9.24356
▁First	-9.24367
ik	-9.24412
▁High	-9.24455
▁county	-9.24469
▁Black	-9.24503
11	-9.24752
▁class	-9.24906
kin	-9.24962
▁mass	-9.25075
use	-9.25107
▁release	-9.25179
let	-9.25306
▁UK	-9.2554
▁Bra	-9.25615
▁theory	-9.2563
▁lower	-9.25665
0%	-9.25717
▁surface	-9.25833
▁2009	-9.25872
▁Fi	-9.25879
▁Since	-9.25947
▁continued	-9.26197
▁open	-9.26214
▁comp	-9.26218
▁David	-9.26265
▁Music	-9.26482
▁trans	-9.26492
▁1950	-9.26505
▁2007	-9.2653
▁°	-9.26613
▁independent	-9.26635
▁Middle	-9.26692
▁types	-9.26829
▁anti	-9.26891
▁traditional	-9.26917
▁Grand	-9.26947
▁information	-9.26986
▁(20	-9.26992
ult	-9.27033
ney	-9.2707
▁Washington	-9.27093
▁acid	-9.27096
▁Emperor	-9.2712
▁ar	-9.27139
▁changes	-9.27169
▁practice	-9.27255
40	-9.27438
▁Du	-9.27507
har	-9.27576
air	-9.27667
▁()	-9.27669
▁next	-9.27689
▁1999	-9.27787
▁things	-9.27847
form	-9.27871
ari	-9.28151
▁Although	-9.28151
▁Battle	-9.28255
▁fire	-9.28291
▁Saint	-9.28313
▁Mon	-9.28321
ny	-9.28342
▁religion	-9.28343
▁cover	-9.2839
▁Spain	-9.28453
▁Shi	-9.28494
▁fall	-9.28565
▁appeared	-9.28776
▁billion	-9.28892
aw	-9.28914
▁program	-9.2892
ee	-9.28933
▁(1	-9.28979
▁Fe	-9.29001
í	-9.29165
▁Street	-9.29166
▁king	-9.29287
▁voice	-9.2937
▁addition	-9.29466
ks	-9.2948
▁private	-9.29498
ford	-9.29565
▁ancient	-9.29595
ef	-9.29751
▁hit	-9.29834
▁Ireland	-9.29858
▁come	-9.29999
▁schools	-9.30014
▁Court	-9.30165
▁joined	-9.30189
▁organ	-9.30273
▁heart	-9.3034
▁provide	-9.30354
▁base	-9.30495
▁above	-9.30527
▁again	-9.30537
sis	-9.30628
▁fi	-9.30657
▁least	-9.30674
▁full	-9.30688
▁significant	-9.30746
pur	-9.30934
ore	-9.30974
▁bar	-9.31003
▁hard	-9.31051
tur	-9.31093
▁further	-9.31203
gan	-9.31227
▁era	-9.31306
▁community	-9.31425
▁origin	-9.31509
▁health	-9.31542
▁put	-9.31637
▁degree	-9.31651
ec	-9.31685
▁Tra	-9.31807
gue	-9.31823
rm	-9.31831
▁available	-9.31877
▁Y	-9.31879
▁concept	-9.32058
ome	-9.32215
▁temperature	-9.32242
▁Jewish	-9.32302
ita	-9.32333
▁Com	-9.32368
▁players	-9.32372
▁ti	-9.32378
▁rest	-9.32393
▁Ti	-9.32436
▁While	-9.32502
ious	-9.32531
▁size	-9.32556
▁interest	-9.32601
lt	-9.32618
ue	-9.32638
▁correct	-9.32719
▁$	-9.32728
▁value	-9.3276
▁studied	-9.33102
▁Russia	-9.33139
▁books	-9.3314
▁Ke	-9.3318
▁Center	-9.33276
so	-9.3329
for	-9.33453
▁Star	-9.33464
duc	-9.33579
▁killed	-9.33582
my	-9.33593
▁college	-9.33648
▁others	-9.33665
▁ro	-9.33811
▁District	-9.33866
▁western	-9.33999
75	-9.34077
▁22	-9.3408
▁sexual	-9.3409
▁ice	-9.34114
all	-9.34148
▁pi	-9.34227
▁teams	-9.34262
ible	-9.3431
zo	-9.34346
▁data	-9.34376
▁itself	-9.34435
▁frog	-9.34464
iti	-9.3448
▁Football	-9.34547
▁almost	-9.34558
▁appear	-9.34767
▁break	-9.34786
▁events	-9.34836
▁business	-9.34883
▁growth	-9.34939
▁division	-9.34967
▁sold	-9.35134
yl	-9.35189
▁Hall	-9.35208
▁relationship	-9.35338
ons	-9.35391
▁seven	-9.35436
80	-9.35451
▁Los	-9.35545
▁novel	-9.35582
▁child	-9.35647
▁serve	-9.35716
▁subject	-9.35805
▁Richard	-9.35893
▁aged	-9.35904
mic	-9.35965
▁call	-9.36085
▁playing	-9.3613
▁material	-9.3614
▁structure	-9.3614
▁percent	-9.36393
part	-9.36397
ria	-9.36453
▁cultural	-9.36626
des	-9.36632
▁Rome	-9.3671
▁majority	-9.36872
can	-9.36897
▁project	-9.3711
▁look	-9.37124
ier	-9.3731
bit	-9.37338
▁Democratic	-9.37378
ju	-9.37393
▁male	-9.37407
▁ho	-9.37512
▁designed	-9.37536
▁1992	-9.37669
▁test	-9.37719
▁legal	-9.37738
▁lost	-9.37846
▁terms	-9.37886
▁broadcast	-9.3789
▁currently	-9.3796
▁ne	-9.38072
tain	-9.38149
ino	-9.38187
pos	-9.38197
▁My	-9.38226
ants	-9.38231
row	-9.38249
▁outside	-9.38369
▁v	-9.38451
▁Muslim	-9.38464
van	-9.38503
▁port	-9.38571
▁Ver	-9.38575
▁church	-9.38686
▁23	-9.38704
ised	-9.38989
13	-9.38994
sk	-9.39067
▁commonly	-9.39109
ville	-9.39114
▁primary	-9.39198
▁turn	-9.39208
▁Ab	-9.39253
▁2015	-9.39262
▁carbon	-9.39293
ates	-9.39373
▁1995	-9.39394
▁pl	-9.39419
▁1994	-9.39451
ble	-9.39482
▁Championship	-9.39503
▁related	-9.39531
▁story	-9.39583
▁1997	-9.39603
▁1991	-9.39604
▁league	-9.39618
vel	-9.39648
▁1998	-9.39757
su	-9.39764
▁cor	-9.39802
▁Je	-9.39841
▁working	-9.39854
▁battle	-9.39873
▁Louis	-9.39895
[	-9.39987
▁You	-9.40184
▁Ph	-9.40247
▁Force	-9.40287
▁cross	-9.40298
▁Association	-9.40386
ica	-9.40395
▁described	-9.40482
▁fact	-9.40544
cul	-9.40581
▁1996	-9.40654
▁brother	-9.40757
▁Fu	-9.40767
light	-9.40783
ese	-9.40798
▁introduced	-9.40859
25	-9.40945
lf	-9.40993
▁Or	-9.41039
mber	-9.41076
▁today	-9.41157
▁pe	-9.41182
▁matter	-9.41196
▁Green	-9.41282
phy	-9.41297
▁Best	-9.41298
▁Congress	-9.41347
▁writing	-9.414
▁source	-9.41416
▁past	-9.4143
ps	-9.41441
▁active	-9.41535
▁originally	-9.4154
vin	-9.41582
ö	-9.41615
▁(18	-9.41623
xi	-9.41697
▁gra	-9.41769
ments	-9.41794
▁better	-9.42093
▁leading	-9.42178
▁disc	-9.42208
▁Ed	-9.4226
12	-9.42322
▁Ku	-9.4234
▁Michael	-9.42348
▁commercial	-9.42569
ect	-9.42608
▁rather	-9.42629
▁individual	-9.42647
▁Henry	-9.42856
▁super	-9.42908
ral	-9.43198
▁3,	-9.43255
▁followed	-9.43264
▁effect	-9.43386
▁industry	-9.43423
▁centre	-9.43436
▁Mary	-9.43436
14	-9.43466
▁Ottoman	-9.43519
ug	-9.43543
▁mainly	-9.43647
▁seat	-9.43648
▁beginning	-9.43726
▁Prince	-9.43737
ker	-9.43794
▁cr	-9.43901
zi	-9.43912
▁sc	-9.43956
▁ball	-9.44054
cu	-9.44059
▁unit	-9.44137
▁separate	-9.44139
!	-9.44285
yo	-9.44318
▁cost	-9.44523
▁cancer	-9.44597
▁competition	-9.44606
▁able	-9.44608
ok	-9.44687
▁Cla	-9.44819
▁themselves	-9.44832
▁increased	-9.44863
▁Super	-9.44916
▁tradition	-9.45008
▁Its	-9.45034
pro	-9.45051
▁taken	-9.45065
end	-9.45089
▁wa	-9.45253
ray	-9.45459
ade	-9.45503
▁Eastern	-9.4561
▁create	-9.45641
▁Pan	-9.45777
kh	-9.4587
▁Port	-9.45943
▁Governor	-9.46011
▁musical	-9.46083
▁report	-9.46084
nce	-9.46165
▁1989	-9.46185
▁adult	-9.46266
field	-9.46295
▁possible	-9.46326
ification	-9.4633
▁village	-9.46359
ō	-9.46384
▁lo	-9.46403
▁TV	-9.46522
mu	-9.46584
▁Prime	-9.46609
▁vote	-9.4662
▁opened	-9.46627
–19	-9.46651
▁coast	-9.467
▁Life	-9.46715
78	-9.46719
▁Thomas	-9.4672
▁plan	-9.46787
▁Wi	-9.46889
▁reached	-9.47058
▁Ju	-9.47096
▁services	-9.47133
▁Mal	-9.47214
▁referred	-9.47224
of	-9.4727
▁success	-9.47314
▁Ex	-9.47399
▁bank	-9.47403
▁sent	-9.47403
▁function	-9.47437
▁begin	-9.47481
▁answer	-9.47512
▁changed	-9.47609
▁eastern	-9.47617
▁shows	-9.47666
over	-9.47772
▁Bay	-9.47885
▁roles	-9.47889
rac	-9.47897
▁28	-9.47906
▁Greece	-9.47943
wi	-9.47963
ich	-9.4807
▁Hill	-9.48073
▁follow	-9.48121
▁comes	-9.48184
▁associated	-9.48189
▁1930	-9.48276
▁26	-9.48381
ians	-9.48395
▁return	-9.48409
▁[	-9.48434
▁Mc	-9.48466
ath	-9.48496
hy	-9.48559
▁elements	-9.48699
ability	-9.48704
▁50	-9.48709
▁Day	-9.48731
int	-9.48744
▁sta	-9.48864
65	-9.48867
American	-9.48869
▁fish	-9.4887
ular	-9.48931
▁according	-9.48934
▁Boston	-9.48985
▁organization	-9.4903
▁Carolina	-9.49051
▁cases	-9.49141
log	-9.49182
▁particularly	-9.49204
▁Bre	-9.4921
▁replaced	-9.49246
▁para	-9.4925
▁Har	-9.4925
istic	-9.49328
cha	-9.49345
▁larger	-9.49359
uk	-9.49363
▁Republican	-9.49422
▁fr	-9.49432
▁heat	-9.49507
▁2020)	-9.49509
▁artist	-9.49532
▁successful	-9.49533
▁1993	-9.49571
▁Gi	-9.49618
95	-9.49657
5%	-9.49692
▁civil	-9.49725
▁once	-9.4975
▁fe	-9.49879
18	-9.49894
▁tax	-9.49918
▁foreign	-9.49927
▁Bell	-9.49938
▁complex	-9.50027
▁tri	-9.50035
based	-9.50045
year	-9.50053
92	-9.50103
▁Company	-9.50197
yn	-9.50262
▁self	-9.50322
▁hi	-9.504
89	-9.50433
▁ra	-9.50564
▁away	-9.50577
▁saw	-9.50592
▁train	-9.50599
▁oldest	-9.50657
▁Angeles	-9.50728
▁read	-9.50761
▁never	-9.50785
▁oil	-9.50788
▁(;	-9.5079
▁Va	-9.50809
▁Austria	-9.50841
▁allowed	-9.50923
▁ch	-9.51039
▁Cal	-9.5107
▁pressure	-9.51128
▁spread	-9.51154
▁young	-9.51177
▁makes	-9.51283
▁Olympic	-9.51352
▁Rock	-9.51444
▁Old	-9.5148
▁Israel	-9.51551
▁contains	-9.51577
▁Florida	-9.51602
▁Tu	-9.51636
ox	-9.51637
pha	-9.51694
▁brought	-9.51808
▁buildings	-9.51851
if	-9.5194
ological	-9.52021
wood	-9.52093
fu	-9.52184
▁green	-9.52225
ick	-9.52264
▁performance	-9.5228
▁Egypt	-9.52309
▁ve	-9.52389
▁Ya	-9.52394
▁specific	-9.52493
▁crime	-9.52538
ez	-9.52545
zz	-9.5261
▁gave	-9.52635
▁gold	-9.52664
▁uses	-9.52704
ming	-9.52738
▁Che	-9.52925
▁instead	-9.52991
▁Arab	-9.53071
▁characters	-9.53077
▁1988	-9.53084
▁access	-9.53107
old	-9.53125
▁III	-9.53197
rate	-9.53282
▁27	-9.53309
▁Beyoncé	-9.53376
88	-9.53468
▁financial	-9.53482
▁sign	-9.53525
▁wood	-9.53556
▁account	-9.53658
▁En	-9.53689
▁Division	-9.53695
nic	-9.53708
▁describe	-9.53775
▁1979	-9.5382
▁Parliament	-9.53905
sen	-9.53921
▁pass	-9.53927
▁code	-9.53949
▁centuries	-9.53975
▁40	-9.53984
▁recorded	-9.54018
▁particular	-9.54022
▁reach	-9.5414
▁Summer	-9.5416
▁1940	-9.54182
64	-9.54244
ani	-9.54274
nch	-9.54395
▁Zealand	-9.544
▁companies	-9.544
▁nation	-9.54401
17	-9.54453
▁physical	-9.54507
▁ended	-9.54515
tz	-9.54571
q	-9.54625
ek	-9.54676
▁exist	-9.54705
76	-9.54737
▁widely	-9.5479
▁Sh	-9.54797
▁problems	-9.5484
▁police	-9.54863
▁divided	-9.54874
vers	-9.54921
▁object	-9.54988
▁Pri	-9.55145
15	-9.55155
▁Mor	-9.55237
ography	-9.55264
off	-9.55361
▁Sal	-9.55424
ric	-9.55451
▁0	-9.55478
▁—	-9.55518
▁sports	-9.55617
▁campaign	-9.55686
ens	-9.55707
▁Northern	-9.55796
▁week	-9.55868
▁White	-9.55868
▁tr	-9.55888
▁find	-9.55974
ä	-9.56046
▁eat	-9.56077
▁park	-9.56122
85	-9.56129
▁track	-9.56156
▁road	-9.56165
70	-9.5628
▁Institute	-9.56298
▁Edward	-9.56457
▁daughter	-9.56552
21	-9.56573
amp	-9.56612
▁claim	-9.56788
▁Texas	-9.56842
▁aircraft	-9.56856
eg	-9.56873
▁lives	-9.5692
▁Pakistan	-9.57024
▁contain	-9.57031
▁Atlantic	-9.57061
▁laws	-9.57088
don	-9.57137
▁develop	-9.57236
her	-9.57236
▁But	-9.57243
▁direct	-9.57254
▁Peter	-9.57286
▁Albert	-9.57489
▁multi	-9.57495
▁smaller	-9.5753
rk	-9.57533
well	-9.5761
▁paper	-9.57694
▁ethnic	-9.57755
▁brain	-9.57824
▁money	-9.57856
▁experience	-9.57889
ole	-9.57916
▁status	-9.57945
▁climate	-9.57976
▁prevent	-9.5807
▁features	-9.5807
▁1987	-9.58071
▁cap	-9.58162
▁reported	-9.58207
▁whose	-9.58211
▁protect	-9.58214
▁animal	-9.58344
▁blue	-9.58345
also	-9.58368
ify	-9.58369
96	-9.58471
ye	-9.58582
X	-9.58628
lli	-9.58675
ati	-9.58713
▁scientific	-9.58751
▁Awards	-9.58751
▁organisms	-9.58812
99	-9.58899
▁month	-9.5896
▁speed	-9.58978
▁1985	-9.58998
▁1984	-9.59032
tle	-9.59064
▁Min	-9.59085
jo	-9.59121
▁environment	-9.59146
▁Jews	-9.59162
▁Au	-9.59189
▁Sha	-9.5927
38	-9.59272
▁Art	-9.59408
▁involved	-9.59419
▁dynasty	-9.5942
90	-9.59434
ib	-9.59625
▁upon	-9.59763
▁charge	-9.59788
▁1986	-9.59891
(	-9.59922
▁think	-9.59961
▁4,	-9.60034
▁regions	-9.6007
▁Ben	-9.60089
▁territory	-9.60132
▁bu	-9.6018
▁Vo	-9.60258
▁birds	-9.60323
▁motor	-9.60362
▁pay	-9.60492
ough	-9.60602
▁1981	-9.60606
cc	-9.60625
▁miles	-9.60693
rit	-9.60699
▁personal	-9.60702
77	-9.60749
▁Over	-9.60752
▁months	-9.6083
▁win	-9.6084
lam	-9.60866
="3"|	-9.60886
je	-9.6089
ved	-9.60904
▁little	-9.60938
▁Qu	-9.60953
▁might	-9.61013
mes	-9.61164
▁night	-9.61166
▁Federal	-9.61189
cal	-9.61204
▁genetic	-9.61259
▁Chi	-9.61271
now	-9.61316
▁nu	-9.61317
▁attempt	-9.61442
▁Napoleon	-9.61455
iz	-9.61466
ever	-9.6147
berg	-9.61487
hen	-9.61539
▁fourth	-9.61553
mm	-9.61634
▁refer	-9.61741
▁birth	-9.61809
▁1974	-9.61935
▁ever	-9.61945
▁added	-9.61995
48	-9.6211
right	-9.62121
lay	-9.62216
▁purpose	-9.6222
▁1983	-9.6232
▁eight	-9.62341
▁star	-9.62366
▁Science	-9.62412
mal	-9.62441
▁performed	-9.62477
til	-9.62684
79	-9.62844
▁("	-9.62899
▁mu	-9.62941
▁fa	-9.63109
66	-9.63177
wo	-9.63193
av	-9.63216
▁Museum	-9.63222
back	-9.63241
60	-9.63248
83	-9.63251
▁Because	-9.63261
▁difficult	-9.63339
▁required	-9.63383
▁Their	-9.63387
▁employ	-9.6349
”	-9.63494
bil	-9.63494
▁Haven	-9.63495
▁shown	-9.6354
▁na	-9.63611
▁Dan	-9.63652
▁Second	-9.63687
▁regular	-9.63688
▁composer	-9.63728
▁offer	-9.63745
55	-9.63752
▁front	-9.6383
▁Fo	-9.63831
81	-9.63834
mit	-9.64103
▁grow	-9.64208
86	-9.64242
▁si	-9.64243
▁sur	-9.64264
82	-9.64489
like	-9.6453
▁keep	-9.64549
87	-9.64733
▁signed	-9.64757
▁symbol	-9.64768
cro	-9.64771
ix	-9.64862
▁deal	-9.64863
▁1982	-9.64926
▁Korea	-9.6494
▁Lake	-9.64942
▁minister	-9.64982
▁mountain	-9.64982
fl	-9.65037
▁location	-9.65298
nu	-9.65357
og	-9.65432
▁Sir	-9.65524
▁document	-9.65535
▁tree	-9.65566
▁y	-9.65574
▁arm	-9.65591
▁Par	-9.65639
▁round	-9.65662
▁native	-9.65815
▁Pacific	-9.65853
▁ri	-9.65881
▁remained	-9.65904
▁Law	-9.66039
▁continue	-9.66104
▁length	-9.66105
▁decade	-9.66225
36	-9.66235
24	-9.66248
▁fo	-9.66307
gr	-9.66311
▁Group	-9.66345
84	-9.66371
▁square	-9.66372
▁rise	-9.66399
▁Lee	-9.66417
▁1973	-9.66434
▁episode	-9.66492
▁Records	-9.66554
22	-9.66568
▁always	-9.66573
▁Career	-9.66575
▁Christ	-9.66659
▁enter	-9.66707
▁“	-9.66752
bra	-9.66866
▁image	-9.66918
▁collect	-9.66923
▁figure	-9.66973
▁pr	-9.67017
art	-9.67066
▁website	-9.67074
▁likely	-9.67098
37	-9.67104
▁Men	-9.67165
lar	-9.67175
▁damage	-9.67176
▁1972	-9.67215
ear	-9.67278
▁1976	-9.67282
▁wall	-9.67297
med	-9.67301
ü	-9.67445
▁Nu	-9.67516
▁met	-9.67617
▁wide	-9.67657
▁idea	-9.67712
lor	-9.67799
▁share	-9.67841
▁Government	-9.67909
▁1971	-9.67926
000	-9.67975
▁mean	-9.67987
19	-9.67997
▁Irish	-9.68075
bar	-9.68076
lia	-9.68143
▁policy	-9.68147
▁comm	-9.68263
▁believed	-9.68269
▁Games	-9.68295
▁construction	-9.68328
▁1969	-9.68331
▁economy	-9.68351
▁Ve	-9.68375
▁concern	-9.68392
tive	-9.68417
▁Department	-9.68432
▁Austrian	-9.68437
▁raised	-9.68603
▁Em	-9.68608
▁grew	-9.68613
▁Netherlands	-9.68637
sp	-9.6867
▁connect	-9.68689
71	-9.68698
▁Ki	-9.68732
▁Ly	-9.68778
▁secret	-9.688
▁studies	-9.68923
▁leg	-9.68926
▁middle	-9.68928
▁va	-9.68941
▁humans	-9.68961
▁5,	-9.69017
▁longer	-9.69039
▁qua	-9.69086
az	-9.69109
▁cannot	-9.69191
▁Sam	-9.69208
▁Pu	-9.69283
▁nature	-9.69322
ym	-9.69387
ura	-9.69417
▁Reg	-9.69458
▁typically	-9.6946
uc	-9.69539
▁Secretary	-9.69592
▁variety	-9.69623
▁conflict	-9.69664
▁coach	-9.69689
▁1975	-9.69697
▁wife	-9.69712
▁kingdom	-9.69714
onic	-9.69717
73	-9.69727
34	-9.6977
▁represent	-9.69821
ging	-9.69886
▁1978	-9.699
vol	-9.69917
ara	-9.69956
▁chart	-9.70061
meter	-9.70189
▁Tom	-9.70211
▁pop	-9.70224
▁discovered	-9.70271
▁dialect	-9.70287
▁electric	-9.70296
▁earlier	-9.70328
▁drug	-9.70585
29	-9.70586
▁29	-9.70615
68	-9.70777
sky	-9.70808
▁shape	-9.70825
▁reform	-9.70854
▁method	-9.70856
burn	-9.70864
▁match	-9.70984
len	-9.71026
▁11,	-9.71048
▁ta	-9.7107
▁done	-9.711
▁1977	-9.71147
col	-9.7115
▁signal	-9.71153
74	-9.71183
ash	-9.71215
▁lu	-9.71258
▁limit	-9.71292
▁face	-9.71297
27	-9.71303
ken	-9.7136
▁Hol	-9.71374
▁give	-9.71413
▁=	-9.71448
▁medal	-9.71469
▁empire	-9.71587
▁historical	-9.71613
play	-9.71653
▁Virginia	-9.71682
▁Windows	-9.71753
▁Film	-9.71805
▁protest	-9.71882
▁helped	-9.71892
▁eventually	-9.71964
gra	-9.71986
▁block	-9.72197
▁Two	-9.72229
ett	-9.72241
▁That	-9.72269
–20	-9.72293
▁Prize	-9.72359
▁Ye	-9.72386
shire	-9.72493
▁himself	-9.72526
ose	-9.7254
▁cat	-9.72567
35	-9.72593
▁Yu	-9.72606
16	-9.72721
▁ran	-9.72728
98	-9.72744
qua	-9.72872
▁Biography	-9.72874
▁provided	-9.72898
93	-9.72996
▁element	-9.73067
▁Year	-9.7312
▁substance	-9.73155
▁Un	-9.73256
▁summer	-9.73256
▁receive	-9.73278
aries	-9.73325
awa	-9.73333
▁philosophy	-9.73369
ession	-9.73386
gre	-9.73396
▁require	-9.73397
▁ce	-9.735
▁Polish	-9.73515
▁farm	-9.7352
▁lot	-9.73532
ette	-9.73601
ets	-9.73611
Y	-9.73612
▁Southern	-9.73673
39	-9.73745
▁Ocean	-9.73757
▁Chopin	-9.73758
▁contract	-9.73776
▁Za	-9.73797
▁greater	-9.7381
▁Switzerland	-9.73842
▁magazine	-9.73842
▁debut	-9.7385
▁cut	-9.73908
▁Tur	-9.73927
▁limited	-9.73942
pri	-9.73987
▁rank	-9.74022
▁Scotland	-9.74058
94	-9.7406
▁1968	-9.74125
teen	-9.74202
late	-9.74224
▁woman	-9.74233
▁Up	-9.74281
die	-9.74283
▁directly	-9.74296
▁Gar	-9.74322
ute	-9.74343
ire	-9.74394
ned	-9.74406
poli	-9.74456
28	-9.74525
è	-9.74534
▁officially	-9.74543
▁wind	-9.74551
91	-9.74559
▁bacteria	-9.74617
▁focus	-9.74673
▁Figure	-9.7474
▁potential	-9.74795
▁8,	-9.74832
ulation	-9.74838
sha	-9.74916
▁stop	-9.74946
▁Mark	-9.75042
▁direction	-9.75044
▁Pla	-9.75102
▁nearly	-9.7513
▁Under	-9.75144
▁got	-9.75223
▁appearance	-9.75315
▁section	-9.75322
56	-9.7536
▁AD	-9.75369
▁islands	-9.75377
▁Bill	-9.75405
arch	-9.75408
▁Ste	-9.75411
▁1967	-9.75427
rie	-9.7544
▁Pope	-9.75456
▁newspaper	-9.75493
▁troops	-9.75494
▁lack	-9.7552
▁retired	-9.75537
▁pen	-9.75541
▁Revolution	-9.75552
▁believe	-9.75553
▁Before	-9.75581
23	-9.75592
rus	-9.75616
lla	-9.75628
ei	-9.75632
hal	-9.75665
qu	-9.75675
▁architecture	-9.75721
▁micro	-9.75779
▁experiment	-9.75801
▁Korean	-9.75804
ope	-9.75815
fect	-9.75815
pu	-9.75826
▁machine	-9.75845
▁measure	-9.75849
▁Islamic	-9.75861
Z	-9.75867
▁passed	-9.75948
▁Joseph	-9.75992
br	-9.76002
=	-9.76026
▁su	-9.76064
69	-9.76089
▁Premier	-9.76089
tre	-9.76096
▁equal	-9.76126
pel	-9.76196
▁Choose	-9.76201
▁31	-9.76214
▁levels	-9.76309
▁Oklahoma	-9.76329
▁collection	-9.76356
▁recent	-9.7636
str	-9.76361
▁15,	-9.76374
▁Don	-9.76428
▁Comp	-9.76446
ude	-9.76456
▁piece	-9.76529
▁bomb	-9.76583
ather	-9.76595
▁7,	-9.76638
cor	-9.76666
▁independence	-9.76728
▁technology	-9.76772
▁software	-9.76774
▁heavy	-9.76817
▁artists	-9.7684
▁census	-9.76861
▁appointed	-9.76971
▁urban	-9.77042
▁(2	-9.77066
▁Wales	-9.77127
▁ocean	-9.77128
▁parents	-9.77141
▁1945	-9.77237
▁occur	-9.77266
In	-9.77307
▁Civil	-9.7731
▁depend	-9.77391
▁ru	-9.77414
▁/	-9.77451
▁More	-9.77469
ama	-9.77508
▁Apple	-9.77527
ase	-9.77529
▁perform	-9.77531
97	-9.77635
▁consists	-9.77662
ola	-9.7773
▁evidence	-9.77753
▁society	-9.77753
ave	-9.77791
fer	-9.77904
▁Love	-9.77911
▁Brazil	-9.77967
▁12,	-9.78011
mor	-9.78074
ttle	-9.78194
▁hold	-9.78311
▁domestic	-9.78382
ident	-9.78397
▁2010,	-9.78403
▁channel	-9.78428
house	-9.78458
▁Cu	-9.78517
▁places	-9.78535
||0||0||	-9.78573
▁thus	-9.78582
bal	-9.78603
▁Czech	-9.78654
ato	-9.78719
▁1964	-9.78728
▁estimated	-9.78787
uff	-9.78824
▁consider	-9.78863
▁syn	-9.78865
▁god	-9.78869
ata	-9.78889
▁belong	-9.78912
▁decision	-9.78925
▁hockey	-9.79016
▁da	-9.7904
ano	-9.7907
▁speak	-9.79136
din	-9.79172
▁oxygen	-9.79198
▁Nations	-9.79239
▁universities	-9.79243
▁carry	-9.79294
▁worldwide	-9.79306
▁application	-9.7938
most	-9.7939
49	-9.79414
avi	-9.79433
ctor	-9.79601
▁ki	-9.79604
▁u	-9.79646
▁adopted	-9.79657
▁too	-9.79698
rio	-9.79707
63	-9.79738
▁pain	-9.79767
tern	-9.79799
26	-9.79827
strict	-9.80002
▁key	-9.80024
▁recording	-9.80057
▁products	-9.8006
▁royal	-9.80113
▁1920	-9.80161
▁Ber	-9.80198
tru	-9.8021
rat	-9.8023
▁Senate	-9.80239
▁reflect	-9.8025
▁Kar	-9.80316
ld	-9.80334
▁transport	-9.80371
▁liquid	-9.80387
▁Airport	-9.80409
▁annual	-9.80418
▁executive	-9.80479
▁medical	-9.8048
▁remains	-9.80481
▁label	-9.80492
▁reign	-9.80515
▁board	-9.80683
▁DNA	-9.80711
war	-9.80712
▁slave	-9.80714
▁goal	-9.80716
▁Martin	-9.80771
▁clear	-9.80772
dia	-9.80871
dom	-9.80928
▁6,	-9.80995
▁visit	-9.81075
▁molecules	-9.81092
▁poet	-9.81223
▁tend	-9.81371
▁Time	-9.81436
▁literature	-9.81451
fo	-9.81459
▁Lord	-9.81508
▁primarily	-9.81544
La	-9.81546
▁ob	-9.81604
▁Mexican	-9.81637
59	-9.81637
press	-9.81646
42	-9.8168
bre	-9.81687
▁multiple	-9.81697
ini	-9.81721
▁sw	-9.81742
▁9,	-9.81752
▁remain	-9.81757
▁mission	-9.81811
▁street	-9.81824
▁glass	-9.81871
47	-9.81874
▁write	-9.81904
ologist	-9.82017
▁drive	-9.8203
▁owned	-9.82036
▁nine	-9.82086
▁sun	-9.82142
sch	-9.82172
▁entire	-9.82279
▁Song	-9.82298
▁manager	-9.82339
57	-9.82363
▁settlement	-9.82385
▁seasons	-9.82426
▁approximately	-9.82453
▁Jr	-9.82464
bon	-9.82501
tation	-9.82547
▁lines	-9.82581
▁10,	-9.82598
▁solid	-9.82622
▁ago	-9.82683
▁defeat	-9.82707
▁Iran	-9.82714
▁mis	-9.82768
▁Armenian	-9.82772
▁Asian	-9.82775
▁Major	-9.82809
cus	-9.82821
uch	-9.82838
▁inside	-9.82838
▁allow	-9.82864
▁Frank	-9.8287
▁generation	-9.82872
▁Nasser	-9.82951
▁eye	-9.82962
▁wo	-9.82971
▁basic	-9.82978
▁Wo	-9.8299
▁Kansas	-9.82999
▁student	-9.83036
▁Cre	-9.83044
▁maintain	-9.83071
tha	-9.83106
ene	-9.83136
▁reason	-9.83187
▁activity	-9.83193
▁awarded	-9.83314
▁Movies	-9.83326
▁fer	-9.83367
▁Constitution	-9.83383
67	-9.834
▁1966	-9.83451
▁sense	-9.83478
▁responsible	-9.83518
▁Ter	-9.83536
TV	-9.83559
&	-9.83633
▁fund	-9.83677
arian	-9.83717
▁forced	-9.83743
▁j	-9.83748
▁add	-9.83819
vil	-9.83893
bro	-9.83953
▁Islands	-9.83965
▁print	-9.84
▁bond	-9.84095
▁reaction	-9.84152
▁spoken	-9.84184
▁Supreme	-9.84232
ces	-9.84313
▁boy	-9.84313
▁Cast	-9.84372
▁Georgia	-9.84376
bl	-9.84376
▁becoming	-9.84379
▁Deaths	-9.84457
58	-9.84493
▁previous	-9.84511
▁react	-9.84557
▁21,	-9.84584
▁mark	-9.84593
known	-9.84606
▁returned	-9.84614
▁cha	-9.8463
▁Poland	-9.84634
▁che	-9.84743
44	-9.84768
east	-9.84788
▁Each	-9.84849
ural	-9.84853
02	-9.8487
▁rec	-9.84893
▁loss	-9.84895
▁future	-9.84952
vent	-9.84997
▁Another	-9.85001
▁product	-9.85021
▁defined	-9.85073
rian	-9.85077
▁classical	-9.85085
54	-9.851
▁route	-9.85114
62	-9.85192
▁Philip	-9.85201
▁gun	-9.85216
▁feature	-9.85301
del	-9.8534
lock	-9.85407
head	-9.85491
▁tissue	-9.85532
▁deep	-9.8556
▁am	-9.85572
2)	-9.85577
▁causes	-9.8559
▁composed	-9.85629
cle	-9.85642
▁spec	-9.85751
▁Mur	-9.85784
▁Wal	-9.85788
▁skin	-9.85807
ory	-9.85835
▁factor	-9.85859
▁join	-9.85948
▁positive	-9.86017
▁conditions	-9.86022
non	-9.86121
▁1939	-9.86141
▁Ser	-9.86155
▁starting	-9.86162
ob	-9.86242
ero	-9.86282
▁target	-9.8631
▁table	-9.86397
▁solar	-9.86408
▁poor	-9.8646
mis	-9.86483
▁Alexander	-9.86505
▁earliest	-9.86554
▁takes	-9.8663
▁journalist	-9.86637
▁airport	-9.8664
▁numbers	-9.86707
▁Portugal	-9.8675
▁hospital	-9.8675
▁know	-9.86754
▁notable	-9.86788
▁emperor	-9.86848
▁26,	-9.86895
▁Melbourne	-9.86897
▁op	-9.86901
water	-9.86927
▁supported	-9.86947
46	-9.86968
31	-9.87029
32	-9.87108
▁16,	-9.87211
▁launched	-9.87263
▁programs	-9.87344
▁Land	-9.87475
▁2013,	-9.87554
ane	-9.8756
▁1948	-9.87568
▁credit	-9.8758
▁Gre	-9.87584
▁Detroit	-9.87587
▁ability	-9.87605
▁Pol	-9.87653
▁13,	-9.87792
mat	-9.87828
dor	-9.87842
▁governor	-9.87849
▁1949	-9.8786
▁ju	-9.8797
▁System	-9.87984
▁judge	-9.87984
▁relatively	-9.88046
▁dead	-9.88097
▁Book	-9.88116
▁peace	-9.88139
▁occurs	-9.88151
▁22,	-9.88163
▁display	-9.88165
▁Game	-9.88181
▁draw	-9.88203
▁stand	-9.88253
▁represented	-9.88255
hood	-9.8826
▁1965	-9.88266
▁hours	-9.88279
▁job	-9.88288
▁Times	-9.88364
▁sh	-9.88378
▁whether	-9.88381
▁previously	-9.8839
▁Women	-9.88449
▁dr	-9.88455
▁Hor	-9.88549
ery	-9.88561
▁flag	-9.88632
▁forest	-9.88678
▁CD	-9.88684
▁pattern	-9.88731
▁Santa	-9.88841
nie	-9.88874
nel	-9.88892
▁care	-9.88903
▁historian	-9.88932
▁Portuguese	-9.88987
▁something	-9.89039
ima	-9.89054
▁1963	-9.89057
▁declared	-9.89081
▁chief	-9.89082
▁ranked	-9.89087
▁1956	-9.89108
▁placed	-9.89168
▁layer	-9.89205
▁14,	-9.89217
see	-9.89234
vision	-9.8926
lav	-9.89265
▁Pat	-9.89303
▁Inter	-9.89357
uit	-9.89374
▁Part	-9.89488
▁command	-9.8956
low	-9.89562
▁24,	-9.89577
▁1961	-9.89654
▁Committee	-9.89736
▁stations	-9.89758
▁administration	-9.89837
▁nominated	-9.89837
pre	-9.89873
▁distance	-9.89888
51	-9.89905
▁200	-9.89953
▁winner	-9.9002
▁problem	-9.90024
▁hot	-9.90035
▁records	-9.90038
▁largely	-9.90055
▁27,	-9.90059
▁dog	-9.90066
▁25,	-9.90072
53	-9.90082
ock	-9.90141
ators	-9.90153
▁ruled	-9.90172
▁Nor	-9.90195
▁Free	-9.90196
▁suggest	-9.90216
lit	-9.90288
▁planet	-9.90329
town	-9.9038
▁failure	-9.904
▁influenced	-9.90435
▁poly	-9.90435
▁hundred	-9.90446
▁Ham	-9.90694
▁Fer	-9.90734
atory	-9.90756
▁ideas	-9.90764
▁1947	-9.90777
▁Both	-9.90793
▁behavior	-9.90905
win	-9.9094
view	-9.90971
▁Boy	-9.90989
▁format	-9.91028
▁hydrogen	-9.91069
▁And	-9.91076
▁global	-9.91109
▁Yo	-9.91131
▁winter	-9.91312
▁involve	-9.9132
▁exp	-9.91348
▁Houston	-9.91417
▁course	-9.91446
▁govern	-9.91451
▁knowledge	-9.9152
lm	-9.91527
▁mixed	-9.91554
▁Val	-9.91558
▁highly	-9.91594
▁parties	-9.91595
33	-9.91646
41	-9.9165
▁nuclear	-9.91709
▁big	-9.91739
▁Disney	-9.91779
▁names	-9.91781
0||0	-9.918
▁whole	-9.91807
▁say	-9.9185
craft	-9.91854
▁Illinois	-9.91881
▁dance	-9.92017
▁flight	-9.92029
west	-9.92069
▁20,	-9.92095
▁branch	-9.92107
▁2009,	-9.92153
▁true	-9.92156
▁23,	-9.92163
▁regional	-9.92172
tto	-9.92176
matic	-9.92214
▁1941	-9.92214
▁Human	-9.92271
▁28,	-9.92347
▁units	-9.92416
▁whom	-9.9245
▁Far	-9.92471
ram	-9.92487
▁Im	-9.925
ban	-9.92509
▁Blue	-9.92557
▁agreement	-9.92592
▁30,	-9.92642
uck	-9.92644
▁Nintendo	-9.92658
▁Brown	-9.92668
▁albums	-9.92727
▁activist	-9.92762
▁Geography	-9.9283
▁approach	-9.92866
01	-9.92879
round	-9.92896
▁defend	-9.92923
▁Olympics	-9.92931
▁content	-9.93078
▁girl	-9.93127
▁decided	-9.93196
▁enough	-9.93209
▁industrial	-9.93232
hr	-9.93256
▁attract	-9.93268
ean	-9.93271
▁19,	-9.93339
▁pla	-9.93348
▁Tru	-9.93351
izing	-9.93384
▁Fox	-9.93389
illa	-9.93442
▁2017)	-9.93524
▁communities	-9.93546
▁authority	-9.93548
▁hop	-9.93561
▁1962	-9.93624
rin	-9.93699
▁2011,	-9.93699
▁invasion	-9.93757
▁del	-9.93804
▁numerous	-9.93809
▁Chief	-9.93874
▁comic	-9.93881
▁ship	-9.93885
rich	-9.93888
▁soon	-9.93933
▁earthquake	-9.93967
▁concert	-9.93968
▁champion	-9.94005
▁want	-9.94007
45	-9.94106
▁older	-9.94203
▁Assembly	-9.94231
▁muscle	-9.94231
▁atoms	-9.94268
▁file	-9.94333
▁vocal	-9.94341
which	-9.94406
▁auto	-9.94407
▁behind	-9.94443
ó	-9.94468
▁Elizabeth	-9.94495
▁minor	-9.94613
▁Maria	-9.94646
▁complete	-9.94666
▁opera	-9.94732
▁BBC	-9.94761
▁Town	-9.94775
|	-9.94775
▁Sc	-9.94807
▁sex	-9.94837
aya	-9.94867
43	-9.94918
iff	-9.94969
▁Society	-9.94973
▁cycle	-9.9499
Q	-9.95101
▁towards	-9.95162
nia	-9.95204
rey	-9.95213
bor	-9.95215
▁professor	-9.9524
cho	-9.95271
state	-9.953
▁principle	-9.9556
500	-9.95584
▁17,	-9.95586
▁operations	-9.95603
▁occurred	-9.95628
▁Ty	-9.95647
▁wave	-9.95718
▁allows	-9.9578
century	-9.95805
▁strength	-9.95882
▁emotion	-9.95936
▁powers	-9.96006
dra	-9.96049
ature	-9.96095
▁candidate	-9.96097
▁chain	-9.96192
▁root	-9.96209
▁Like	-9.9621
▁Ali	-9.96256
▁Sweden	-9.96259
▁indicate	-9.96282
▁Egyptian	-9.96288
▁orbit	-9.96299
▁Service	-9.96313
▁custom	-9.96313
▁prior	-9.96316
ada	-9.9632
▁2014,	-9.9633
Ma	-9.96363
graph	-9.96419
▁pages	-9.9646
vor	-9.96543
▁Later	-9.96557
▁gene	-9.96625
▁gain	-9.96654
▁friend	-9.96704
▁feet	-9.96714
▁1957	-9.96718
▁affect	-9.96757
||0||0	-9.96779
▁Bank	-9.9678
▁quickly	-9.968
▁Trans	-9.9689
▁Hockey	-9.96908
▁founder	-9.96971
▁Member	-9.97067
▁prison	-9.97072
NA	-9.9715
▁room	-9.97171
▁Province	-9.9718
▁60	-9.97201
▁store	-9.97206
▁peak	-9.97278
▁Van	-9.97308
▁sister	-9.97383
astic	-9.97507
ency	-9.97594
▁2019)	-9.97651
ume	-9.97652
▁bring	-9.97789
▁bone	-9.97794
▁objects	-9.97844
▁conf	-9.97883
▁Protestant	-9.98
▁mm	-9.98006
ón	-9.98028
▁im	-9.98091
▁our	-9.98141
och	-9.98156
▁Yale	-9.98198
▁scale	-9.98231
▁defeated	-9.98285
▁Q	-9.98291
af	-9.9832
▁ring	-9.98379
▁Hot	-9.98422
▁List	-9.9843
▁murder	-9.9844
lon	-9.98489
▁Nigeria	-9.98555
▁arch	-9.98588
▁identity	-9.98606
wing	-9.98614
▁Power	-9.98718
▁soldiers	-9.98729
▁lake	-9.98745
cept	-9.98765
▁ways	-9.98768
ngle	-9.98817
CA	-9.98818
▁results	-9.98847
ked	-9.98932
▁activities	-9.98937
▁29,	-9.98941
▁Er	-9.98954
cial	-9.99001
▁Jesus	-9.99054
rn	-9.99056
▁cre	-9.99099
rated	-9.99109
▁matches	-9.99121
▁refers	-9.99165
▁dark	-9.99228
pic	-9.9923
-20	-9.99262
tical	-9.99291
▁association	-9.99436
▁step	-9.9953
ux	-9.9959
▁box	-9.99591
▁Carl	-9.99601
▁von	-9.99605
ua	-9.99638
▁Water	-9.99653
top	-9.99662
▁Order	-9.99705
▁Columbia	-9.99715
▁already	-9.99715
▁greatest	-9.99729
▁double	-9.99772
▁Philadelphia	-9.99827
▁2012,	-9.99912
▁digital	-9.99951
▁1944	-9.99966
elle	-9.99992
▁families	-9.99995
cover	-10.0002
▁Anti	-10.0005
yan	-10.0009
▁Bor	-10.0012
lum	-10.0017
are	-10.003
▁ruler	-10.003
▁Bur	-10.0031
▁storm	-10.0034
lea	-10.0039
▁running	-10.0048
▁article	-10.005
▁Bel	-10.0053
▁spin	-10.0057
▁publish	-10.0063
ae	-10.0063
▁volume	-10.0073
▁musician	-10.0078
▁1952	-10.008
▁Out	-10.0083
cen	-10.0095
own	-10.0105
▁(3	-10.0105
▁$1	-10.0107
▁belief	-10.0118
▁honor	-10.0124
▁via	-10.0131
▁Duke	-10.0131
▁Sports	-10.0137
▁Commission	-10.0141
▁Brazilian	-10.0142
ably	-10.0144
▁semi	-10.0155
▁biggest	-10.0157
▁definition	-10.0157
▁fifth	-10.0157
▁photo	-10.0165
▁Mag	-10.0176
▁electrical	-10.0187
▁structures	-10.019
rr	-10.0193
nov	-10.0194
▁Arm	-10.0197
ira	-10.0198
▁1946	-10.02
▁1958	-10.02
▁Jackson	-10.0206
▁property	-10.0211
cia	-10.0215
▁my	-10.0219
mba	-10.0225
▁Mid	-10.0228
▁build	-10.0229
kar	-10.0231
▁technique	-10.0232
▁sources	-10.0232
07	-10.0237
▁2008,	-10.0239
ena	-10.0241
▁zone	-10.0244
bla	-10.0254
▁iron	-10.0263
▁fat	-10.0267
▁plate	-10.0279
▁campus	-10.0285
▁sym	-10.0286
▁1934	-10.0287
▁letter	-10.0292
▁talk	-10.0293
cher	-10.0298
▁materials	-10.0304
wan	-10.0313
▁Ann	-10.0313
▁1954	-10.0321
▁Education	-10.033
▁Actors	-10.0331
▁Festival	-10.0335
oid	-10.0336
▁wanted	-10.0337
▁Pen	-10.0339
unt	-10.034
▁Massachusetts	-10.0341
▁phase	-10.0342
▁FC	-10.0342
▁1955	-10.0345
▁Imperial	-10.0347
▁mono	-10.035
▁Road	-10.0352
▁arrondissement	-10.0353
▁resulting	-10.0355
%	-10.0361
▁Valley	-10.0366
°	-10.0369
chan	-10.0373
▁award	-10.0375
▁1942	-10.0379
▁avoid	-10.0382
▁internal	-10.0386
ller	-10.0387
▁suburb	-10.0394
▁fla	-10.0411
▁cold	-10.0412
▁stated	-10.0417
▁Fla	-10.0425
cer	-10.0427
▁hunting	-10.0427
▁Gal	-10.043
▁Gaddafi	-10.044
▁solution	-10.044
04	-10.0445
▁calendar	-10.0446
▁Tro	-10.045
tus	-10.0459
oo	-10.0464
▁Billboard	-10.0464
▁Tre	-10.0467
▁price	-10.0473
▁teacher	-10.0473
▁stay	-10.0474
▁fought	-10.0475
▁Sur	-10.0477
▁establish	-10.0482
▁operating	-10.0483
take	-10.0485
▁Jersey	-10.0487
▁academic	-10.0487
▁Of	-10.0488
▁str	-10.0491
05	-10.0496
▁destroyed	-10.0497
▁growing	-10.0498
▁institutions	-10.0499
mark	-10.0501
▁1936	-10.0502
▁probably	-10.0505
▁1959	-10.0508
gent	-10.0509
▁sha	-10.051
▁Vietnam	-10.051
▁gained	-10.0516
▁copper	-10.0516
▁Gene	-10.0519
▁Mer	-10.0521
tel	-10.0524
5,000	-10.0524
▁accept	-10.0526
kov	-10.0528
▁individuals	-10.0531
▁2023	-10.0532
▁proposed	-10.0534
▁compared	-10.0534
▁Smith	-10.0534
▁genus	-10.0534
▁completed	-10.0539
▁citizens	-10.054
▁Cra	-10.0543
▁Four	-10.0547
bert	-10.0547
ode	-10.0552
▁sport	-10.0553
▁communication	-10.0564
▁operate	-10.0568
▁Jean	-10.0569
▁Orthodox	-10.057
char	-10.057
▁Andr	-10.0577
▁Adam	-10.0592
mann	-10.0592
="4"|	-10.0593
▁Hun	-10.0607
ping	-10.0608
▁winning	-10.0609
ula	-10.0612
ski	-10.0619
▁Wood	-10.062
struc	-10.0631
▁risk	-10.0636
▁Tour	-10.0646
▁teaching	-10.0646
▁featured	-10.0649
▁Line	-10.065
▁treaty	-10.0651
▁Stra	-10.0652
▁2007,	-10.0656
▁films	-10.0658
▁Events	-10.0661
▁Char	-10.0663
▁presidential	-10.0671
▁1953	-10.0674
pen	-10.0675
▁seem	-10.0676
▁council	-10.0677
▁railway	-10.0678
▁championship	-10.0678
▁Madonna	-10.0683
▁recognized	-10.0684
▁meeting	-10.0686
▁Long	-10.0687
▁bio	-10.0687
▁fast	-10.0695
▁presence	-10.0695
run	-10.0696
▁Sand	-10.0704
▁Miami	-10.0714
▁moving	-10.0717
lly	-10.0718
verse	-10.0719
▁Home	-10.0722
▁churches	-10.0722
▁issue	-10.0723
oli	-10.0729
ew	-10.073
▁Bri	-10.0735
▁covered	-10.0736
▁love	-10.0738
rist	-10.0739
▁operation	-10.074
▁don	-10.0748
52	-10.0748
▁scientists	-10.0752
▁museum	-10.0755
$	-10.0756
▁provides	-10.0757
▁1943	-10.0758
▁Gro	-10.0761
▁negative	-10.0761
▁applied	-10.0761
▁80	-10.0764
▁ear	-10.0765
▁festival	-10.0767
ncy	-10.0772
▁taking	-10.0775
▁device	-10.0776
▁instrument	-10.0776
▁creation	-10.0777
▁basketball	-10.0779
▁Hindu	-10.0779
▁towns	-10.0789
▁Vol	-10.0795
▁reduce	-10.0797
▁properties	-10.0798
▁unique	-10.0801
enc	-10.0804
▁rules	-10.0804
▁cast	-10.0806
▁administrative	-10.0809
▁antenna	-10.081
▁insects	-10.0811
▁except	-10.0812
rel	-10.0823
▁ft	-10.0829
▁Mil	-10.0829
▁Berlin	-10.0835
▁script	-10.0835
▁1951	-10.0837
▁editor	-10.0839
ides	-10.0843
▁Fort	-10.0843
cur	-10.0845
zen	-10.0846
▁representative	-10.0848
▁Sta	-10.0848
place	-10.0853
▁(17	-10.0859
bin	-10.0861
▁Islam	-10.0862
▁te	-10.0863
▁claimed	-10.0864
▁feed	-10.0865
▁training	-10.0867
09	-10.0867
pan	-10.0871
▁Pennsylvania	-10.0876
▁weak	-10.0879
Ch	-10.0881
▁devices	-10.0886
▁tell	-10.0899
▁quality	-10.09
▁warm	-10.0903
▁1931	-10.091
bel	-10.092
▁painting	-10.0922
▁happened	-10.0922
▁Today	-10.0927
▁Avenue	-10.0938
▁Modern	-10.0938
▁Palace	-10.0946
▁here	-10.0949
cker	-10.0951
▁1929	-10.096
▁Arts	-10.0964
▁Hy	-10.0965
morph	-10.0966
▁Big	-10.097
▁compounds	-10.0971
▁relative	-10.0973
▁passenger	-10.0975
▁distributed	-10.0981
▁scene	-10.0983
▁bus	-10.0983
▁Diego	-10.0987
▁Sar	-10.099
▁Young	-10.0991
▁Bal	-10.0996
▁vehicle	-10.0999
▁noted	-10.1
▁Tibet	-10.1007
▁Following	-10.1012
▁pair	-10.1012
▁effects	-10.1016
▁1937	-10.1022
▁electrons	-10.1023
▁Cri	-10.1024
▁Ken	-10.1024
▁normal	-10.1029
▁union	-10.1032
gate	-10.1032
61	-10.1038
▁mayor	-10.1049
bri	-10.1049
ugh	-10.1051
▁resulted	-10.1053
▁die	-10.1054
▁Op	-10.1056
▁critical	-10.1057
▁1933	-10.1058
▁2006,	-10.1058
▁animated	-10.1062
ected	-10.1062
hara	-10.1063
06	-10.1065
▁Mad	-10.107
isation	-10.1073
);	-10.1074
ids	-10.1074
vid	-10.1079
▁ven	-10.108
nate	-10.1091
mun	-10.1097
▁Swedish	-10.1099
▁2021)	-10.11
▁elections	-10.1102
▁attacks	-10.1103
▁About	-10.1107
▁Tor	-10.1107
▁Sol	-10.1113
▁2018)	-10.1115
▁electronic	-10.1116
ˈ	-10.1118
▁territories	-10.1118
▁Mus	-10.1124
ook	-10.1127
tsu	-10.1128
▁Ze	-10.1134
▁prime	-10.1137
▁lawyer	-10.1143
▁basis	-10.1146
▁clubs	-10.1151
▁impact	-10.1152
▁cho	-10.1153
gal	-10.1155
▁Why	-10.1162
▁floor	-10.1168
ove	-10.1172
▁silver	-10.1174
▁treat	-10.1181
▁spent	-10.1186
zu	-10.1188
▁Mount	-10.1189
▁expansion	-10.1193
▁rain	-10.1195
▁breed	-10.12
▁alternative	-10.1206
▁Internet	-10.1206
▁demand	-10.1206
dition	-10.1207
▁1938	-10.121
mini	-10.1214
03	-10.1215
▁listed	-10.1218
▁footballer	-10.1219
▁becomes	-10.1223
▁Work	-10.1229
▁Pra	-10.123
▁officer	-10.1242
rom	-10.1242
▁portion	-10.1245
rent	-10.1246
▁Also	-10.1247
▁fiction	-10.1248
▁permanent	-10.125
▁resistance	-10.1251
iya	-10.1253
▁nickname	-10.1256
▁Mill	-10.1262
▁headquarters	-10.1263
▁score	-10.1264
▁split	-10.1265
lov	-10.1266
▁fossil	-10.1275
▁favor	-10.1276
▁waves	-10.1282
▁benefit	-10.1288
▁romantic	-10.1288
▁Golden	-10.1289
▁effective	-10.129
▁genes	-10.1292
▁bin	-10.1295
▁Swiss	-10.1301
ties	-10.1305
+	-10.1308
▁guitar	-10.1315
||1||0||	-10.1319
▁exchange	-10.132
▁contrast	-10.132
▁attend	-10.1326
▁membrane	-10.1333
▁Navy	-10.1335
▁Jack	-10.1336
▁residents	-10.1338
▁controlled	-10.1339
▁latter	-10.1344
▁decrease	-10.1346
▁leaders	-10.1348
_	-10.1352
▁prominent	-10.1352
▁Related	-10.1352
gor	-10.1361
▁wear	-10.1361
▁constant	-10.1361
▁speech	-10.1365
▁formation	-10.1365
oy	-10.1371
mination	-10.1374
not	-10.138
▁Win	-10.1381
lip	-10.139
▁Entertainment	-10.1391
▁supply	-10.1391
ky	-10.1392
▁ban	-10.1395
▁Tennessee	-10.1397
llen	-10.1402
▁Mont	-10.1403
▁Official	-10.1403
▁2013.	-10.1404
▁Scottish	-10.1405
▁selected	-10.141
▁serving	-10.1411
▁Ban	-10.1414
▁salt	-10.1421
▁picture	-10.1423
▁snow	-10.1424
▁Persian	-10.1433
▁Champion	-10.1441
▁your	-10.1444
SA	-10.1454
▁Representatives	-10.1455
▁90	-10.146
▁increasing	-10.1461
▁70	-10.1465
▁thousands	-10.1466
▁Treaty	-10.1468
speaking	-10.1472
▁Office	-10.1472
▁Universal	-10.1474
work	-10.1475
▁install	-10.1476
▁turned	-10.1476
▁Jud	-10.1476
▁1928	-10.1478
▁2010.	-10.1486
▁points	-10.1489
▁kill	-10.1491
▁foot	-10.15
▁scholars	-10.1501
▁houses	-10.1503
▁carried	-10.1507
▁Plan	-10.151
▁Kan	-10.1513
▁particles	-10.1518
▁press	-10.1521
▁municipality	-10.1522
rov	-10.1525
▁wing	-10.1525
tric	-10.1534
▁Libya	-10.1534
▁link	-10.1536
chen	-10.1537
ically	-10.1538
▁additional	-10.1541
▁Gold	-10.1551
▁Public	-10.1553
▁Delhi	-10.1555
▁says	-10.1557
oon	-10.156
ç	-10.1566
▁Francisco	-10.1569
08	-10.1569
action	-10.157
▁Show	-10.157
▁runs	-10.1578
▁dogs	-10.1579
▁epi	-10.1582
▁Turkish	-10.1584
▁Del	-10.1585
llow	-10.1586
1||0	-10.1587
▁Seattle	-10.1593
lio	-10.1594
II	-10.1601
▁shoot	-10.1605
▁overall	-10.1607
200	-10.161
▁sales	-10.1613
▁meet	-10.1619
▁PC	-10.1622
▁broad	-10.1625
▁MP	-10.1627
▁joint	-10.1629
▁leaves	-10.1636
▁count	-10.1637
▁finished	-10.1649
2%	-10.165
▁Ten	-10.1658
▁sequence	-10.1664
▁Gen	-10.1674
▁memory	-10.1678
▁powerful	-10.1679
▁cur	-10.1681
▁entered	-10.1683
oma	-10.1684
▁respect	-10.1691
▁1932	-10.1694
▁2015,	-10.1695
▁distinct	-10.1695
▁soil	-10.1699
▁weight	-10.1702
▁issues	-10.1704
▁Top	-10.1708
cade	-10.1709
pass	-10.1714
▁engineer	-10.1715
▁goes	-10.1716
▁1935	-10.1721
▁Eisenhower	-10.1724
▁Night	-10.1729
gh	-10.173
▁Armenia	-10.1743
▁formal	-10.1746
3%	-10.1748
ille	-10.1752
-1	-10.1754
▁Bla	-10.1756
▁tropical	-10.1757
▁shift	-10.1757
▁transfer	-10.1763
▁Origin	-10.1764
▁acting	-10.1766
▁sum	-10.1771
▁meant	-10.1771
▁Command	-10.1778
▁Sco	-10.178
▁Luc	-10.1781
▁derived	-10.1781
▁rich	-10.1783
ique	-10.1786
▁Track	-10.1787
▁instruments	-10.1795
▁Three	-10.1799
▁web	-10.1804
▁percentage	-10.1805
idae	-10.1809
▁essential	-10.1811
▁therefore	-10.1811
pped	-10.1818
▁edition	-10.1818
▁Johnson	-10.1819
▁trees	-10.1819
ella	-10.1823
▁politics	-10.1824
▁removed	-10.1828
▁fill	-10.1828
▁Sho	-10.1831
▁treatment	-10.1832
▁circuit	-10.1838
▁flu	-10.1838
Al	-10.1839
▁audio	-10.1839
▁situation	-10.1845
▁contact	-10.1846
▁Gri	-10.1847
▁granted	-10.1848
▁launch	-10.1848
▁nations	-10.185
▁fight	-10.1852
▁consist	-10.1854
▁marked	-10.1859
▁cotton	-10.1865
▁reduced	-10.1865
▁republic	-10.1867
▁philosopher	-10.1872
▁drink	-10.1873
▁Chan	-10.1886
▁protein	-10.1887
▁Kerry	-10.1892
▁USA	-10.1894
▁Turkey	-10.1899
▁earth	-10.1899
▁fruit	-10.19
▁Good	-10.19
▁UN	-10.1905
▁Several	-10.1905
▁Age	-10.1919
▁surrounding	-10.1919
▁stone	-10.1924
▁Despite	-10.1926
▁upper	-10.1927
tting	-10.1932
▁stadium	-10.1932
▁priest	-10.1933
▁Israeli	-10.1936
▁Hong	-10.1943
itz	-10.1944
▁marriage	-10.1946
era	-10.1948
▁grand	-10.1955
▁compound	-10.1957
▁bridge	-10.1961
▁Kong	-10.1962
▁evolution	-10.197
▁quarter	-10.1986
▁descend	-10.1987
▁Kh	-10.1989
▁detail	-10.1992
▁fan	-10.1992
▁agent	-10.1998
▁Michigan	-10.2001
▁screen	-10.2005
▁contemporary	-10.2007
▁initially	-10.201
ova	-10.2012
▁fuel	-10.2014
net	-10.2017
▁Census	-10.2028
▁failed	-10.2028
▁1927	-10.2032
▁vary	-10.2038
▁weather	-10.2044
▁Cho	-10.2056
osis	-10.2058
var	-10.206
class	-10.2062
▁sector	-10.2063
▁Ci	-10.2064
nan	-10.2067
▁reference	-10.2067
▁scholar	-10.2082
▁Studio	-10.209
▁par	-10.2093
▁Ol	-10.2103
▁combined	-10.2104
▁2014.	-10.2104
▁tour	-10.2114
▁engine	-10.2117
▁transition	-10.2118
▁dry	-10.2118
rap	-10.2123
fr	-10.2132
▁longest	-10.2133
▁Sub	-10.2135
▁monarch	-10.2136
vic	-10.2137
▁Ages	-10.2138
▁crisis	-10.2145
▁aid	-10.2154
▁security	-10.2159
▁Live	-10.2165
Co	-10.2172
eng	-10.2172
▁secondary	-10.2177
▁opening	-10.2179
▁Plymouth	-10.218
▁Dar	-10.218
▁Christianity	-10.2184
Serie	-10.22
▁victory	-10.2201
▁Native	-10.2203
ivity	-10.2207
rum	-10.221
▁methods	-10.221
▁Max	-10.2211
▁Main	-10.2212
▁differences	-10.2217
▁31,	-10.2221
▁ships	-10.2233
▁tournament	-10.2236
▁Light	-10.2241
▁neighborhood	-10.2243
▁recently	-10.2247
▁poll	-10.2252
▁address	-10.2257
▁Mr	-10.2257
▁height	-10.226
▁1900	-10.2267
▁going	-10.2269
▁connected	-10.2275
▁500	-10.2275
▁mosaic	-10.2278
▁Alaska	-10.2278
stant	-10.228
▁Barcelona	-10.2285
PA	-10.2289
long	-10.229
▁absorb	-10.2292
▁organized	-10.2293
▁ver	-10.2299
▁bird	-10.2299
▁serious	-10.2299
▁2011.	-10.2303
ception	-10.2305
▁Miss	-10.2307
▁listing	-10.2311
▁extra	-10.2318
▁harm	-10.2319
ə	-10.232
▁taught	-10.2323
ida	-10.2323
▁closely	-10.2324
▁Mountains	-10.233
▁bad	-10.233
▁Bridge	-10.2331
gin	-10.2331
cular	-10.2332
▁organism	-10.2334
▁planned	-10.2336
▁shot	-10.2346
▁Ven	-10.2347
▁correspond	-10.2348
▁aspect	-10.2349
4%	-10.2352
▁Class	-10.2354
▁stories	-10.2356
▁conduct	-10.2358
▁valley	-10.2363
▁variation	-10.237
▁formula	-10.237
▁wrestler	-10.2382
put	-10.239
▁goals	-10.2392
ado	-10.2392
▁AC	-10.2393
4||0	-10.2402
▁ideal	-10.2405
▁pub	-10.2408
▁relations	-10.2411
▁Will	-10.2416
▁reasons	-10.242
▁suit	-10.242
▁minority	-10.2426
▁console	-10.2427
▁connection	-10.2429
phon	-10.2431
▁constitution	-10.2437
▁Research	-10.2441
▁ph	-10.2442
py	-10.2443
▁1926	-10.2445
▁Bronx	-10.2448
▁motion	-10.2451
mil	-10.2451
▁ur	-10.2454
▁wealth	-10.247
▁lay	-10.247
▁cent	-10.247
ace	-10.2473
▁Khan	-10.2476
▁metropolitan	-10.2484
▁exc	-10.2488
▁UEFA	-10.2491
▁Pictures	-10.2496
▁Mel	-10.2499
hel	-10.2504
▁1922	-10.251
▁carrier	-10.2513
ific	-10.2518
pol	-10.2528
▁doctor	-10.2534
▁Fra	-10.2538
▁Microsoft	-10.2541
2||0	-10.2543
▁sentence	-10.2546
#	-10.2547
▁Ran	-10.2552
▁bass	-10.2554
▁actually	-10.2556
▁temperatures	-10.2557
▁creating	-10.2566
▁traffic	-10.257
such	-10.2584
ili	-10.2587
▁identified	-10.2592
bul	-10.2594
▁Tibetan	-10.2596
▁1925	-10.2598
▁widespread	-10.2599
▁resources	-10.2607
ended	-10.2607
▁Princess	-10.2609
▁severe	-10.2609
but	-10.2614
▁rival	-10.2616
▁Bru	-10.2621
tten	-10.2625
án	-10.2626
▁proper	-10.2628
cri	-10.2632
▁existence	-10.2632
▁Ancient	-10.2645
▁extensive	-10.265
▁torch	-10.2652
-2	-10.2656
cap	-10.2656
▁2022)	-10.266
board	-10.2663
▁Darwin	-10.2665
▁infection	-10.2666
▁weeks	-10.2667
style	-10.2672
igh	-10.2678
▁bill	-10.268
▁agreed	-10.2685
▁learning	-10.2686
ien	-10.2686
gro	-10.2687
▁COVID	-10.2694
▁Buddhism	-10.2694
agon	-10.2698
▁giving	-10.2702
▁spring	-10.2707
▁Health	-10.2711
stone	-10.2714
wn	-10.2716
▁Radio	-10.2717
▁Dor	-10.2723
▁continent	-10.2725
umb	-10.2725
stein	-10.2731
▁2009.	-10.2732
▁hair	-10.2733
▁Ger	-10.2735
▁solo	-10.2737
▁cool	-10.2737
lim	-10.2746
▁Series	-10.2746
▁Holy	-10.2755
▁master	-10.2761
rant	-10.2765
▁online	-10.2772
ree	-10.2772
▁satellite	-10.2775
▁mountains	-10.2782
▁defence	-10.2783
1%	-10.2785
▁2007.	-10.2785
▁Para	-10.279
▁frequently	-10.2792
▁completely	-10.2796
cell	-10.2796
▁bit	-10.2798
▁Prussia	-10.2799
▁Francis	-10.2803
▁accepted	-10.2807
▁functions	-10.2808
ped	-10.2809
pping	-10.2809
▁gu	-10.2818
▁holds	-10.2818
600	-10.2818
▁distinguish	-10.282
▁Arthur	-10.282
▁patent	-10.2821
▁developing	-10.2824
▁yet	-10.2827
▁1924	-10.2831
▁lung	-10.2833
▁capacity	-10.2834
▁Lau	-10.2846
▁concentration	-10.2849
oso	-10.2853
▁Winter	-10.2855
▁respectively	-10.2857
▁expanded	-10.2858
▁electricity	-10.2858
more	-10.2862
▁Syria	-10.2862
▁Pop	-10.2875
▁indigenous	-10.2879
▁Cross	-10.2886
AA	-10.29
▁Norman	-10.2901
▁exception	-10.2901
rick	-10.2902
▁implement	-10.2902
▁gives	-10.2904
tent	-10.2906
▁Station	-10.2908
▁genre	-10.291
▁instance	-10.291
▁evolved	-10.2915
▁protection	-10.2916
zy	-10.2917
▁atom	-10.2921
▁architect	-10.2922
▁elect	-10.2929
phone	-10.293
▁wire	-10.2932
▁Communist	-10.2939
▁Inc	-10.2941
▁Iraq	-10.2947
▁engage	-10.2954
▁owner	-10.2956
▁Somali	-10.2959
▁income	-10.296
▁Manchester	-10.2962
▁sand	-10.2965
▁Mah	-10.2965
equ	-10.2968
▁Fre	-10.2971
6%	-10.2972
▁Liga	-10.2976
▁Square	-10.2984
▁Ram	-10.2985
▁Nobel	-10.2994
mission	-10.2994
▁temple	-10.2995
horn	-10.2998
▁Jones	-10.2998
arm	-10.2998
3||0	-10.3
▁environmental	-10.3002
with	-10.3012
5||0	-10.3014
▁predator	-10.3015
▁Director	-10.3023
▁Iranian	-10.3024
ogen	-10.3029
▁hydro	-10.3029
▁bishop	-10.303
▁organizations	-10.3036
▁decline	-10.3037
▁eggs	-10.3038
▁Mass	-10.3046
▁awards	-10.3051
▁Network	-10.3052
▁tele	-10.3053
▁copies	-10.306
▁35	-10.3065
▁counter	-10.3075
▁(4	-10.3076
▁Py	-10.3081
▁distribution	-10.3083
ona	-10.3088
▁Daniel	-10.3091
▁2015.	-10.3092
▁extended	-10.3093
▁Clo	-10.3097
▁differ	-10.3099
▁ski	-10.31
▁rail	-10.3102
▁tried	-10.3103
zar	-10.3105
▁remaining	-10.3114
hor	-10.3121
▁iPod	-10.3121
▁Television	-10.3121
crea	-10.3127
▁McC	-10.3128
mine	-10.314
▁mix	-10.3148
▁factors	-10.3157
law	-10.3158
▁PlayStation	-10.3159
▁settled	-10.3159
▁Eu	-10.316
met	-10.3162
▁revolution	-10.3164
▁desert	-10.3167
▁processes	-10.3168
▁1923	-10.3171
▁shared	-10.3173
▁Sil	-10.3176
▁Gla	-10.3176
▁invented	-10.3176
▁classified	-10.3178
▁3:	-10.3192
dio	-10.3192
bury	-10.3194
▁publication	-10.3195
▁starred	-10.32
▁kept	-10.3206
▁hosted	-10.3208
May	-10.3211
▁Scott	-10.3213
▁Idol	-10.3213
▁VI	-10.3216
▁Stadium	-10.3221
▁hip	-10.3225
▁regarded	-10.3226
▁yellow	-10.3229
▁Ohio	-10.3229
▁daily	-10.3229
▁Jan	-10.323
▁historic	-10.3231
dri	-10.3234
▁mineral	-10.3237
▁Vice	-10.3247
▁et	-10.3251
▁affected	-10.3252
▁Ontario	-10.326
▁downtown	-10.3262
▁comedian	-10.3267
▁Ky	-10.3271
▁Senator	-10.3271
▁path	-10.3273
leg	-10.3275
▁influential	-10.3275
▁Buddhist	-10.3283
▁cont	-10.3289
▁Tar	-10.329
▁occupied	-10.3291
▁convention	-10.3291
▁stream	-10.3293
100	-10.3295
▁Common	-10.3296
▁invest	-10.3298
▁32	-10.3299
▁argued	-10.3305
▁Richmond	-10.3306
▁medicine	-10.3306
▁foundation	-10.3308
▁letters	-10.3309
8%	-10.3312
▁fictional	-10.3313
▁advantage	-10.3314
▁Bush	-10.3319
▁operated	-10.3319
▁Stone	-10.3321
▁theatre	-10.3324
▁condition	-10.3325
▁twice	-10.333
▁critic	-10.3337
▁45	-10.3343
▁Between	-10.3345
▁issued	-10.3347
▁colonies	-10.3348
▁Little	-10.3349
▁flat	-10.3353
▁audience	-10.3353
▁beyond	-10.3353
▁nearby	-10.3354
▁wi	-10.3356
▁threat	-10.3358
▁Zo	-10.3359
▁electro	-10.336
▁Sel	-10.3362
tech	-10.3366
▁Corporation	-10.3369
▁Cro	-10.337
▁pin	-10.3373
▁tribes	-10.3374
▁FIFA	-10.3377
▁folk	-10.3377
mate	-10.3381
▁mammals	-10.3382
▁broke	-10.3387
▁Not	-10.339
▁colon	-10.3394
▁cm	-10.3396
troph	-10.3397
where	-10.34
▁chromosome	-10.34
▁Ash	-10.3403
flu	-10.3405
▁compete	-10.3408
▁transform	-10.3411
▁captured	-10.3412
▁parliament	-10.3412
▁Bob	-10.3413
▁radiation	-10.3414
▁Cy	-10.3414
а	-10.3416
▁tube	-10.3417
▁characteristics	-10.3422
mmer	-10.3428
Li	-10.3433
▁relay	-10.3436
▁happen	-10.3439
▁Railway	-10.3439
▁Ur	-10.344
▁Nepal	-10.3448
▁allowing	-10.3448
▁showed	-10.3453
£	-10.3453
▁biological	-10.3459
▁Valencia	-10.3463
▁plane	-10.3463
▁horse	-10.3463
▁Andrew	-10.3467
self	-10.3469
gram	-10.3471
▁revenue	-10.3471
▁Grammy	-10.3471
▁detect	-10.3476
ami	-10.3481
▁colonial	-10.3481
▁difference	-10.3494
▁Manhattan	-10.3495
▁offered	-10.3498
▁send	-10.3498
rush	-10.3501
▁translation	-10.3503
mph	-10.3503
▁(16	-10.3504
▁components	-10.3504
▁Bern	-10.3506
▁pan	-10.3507
▁stores	-10.351
▁faith	-10.3511
position	-10.3517
▁racial	-10.352
lect	-10.3522
▁attended	-10.3525
▁easily	-10.3527
▁slow	-10.3528
▁Exp	-10.3533
▁household	-10.3533
▁Vienna	-10.3535
▁Philippines	-10.3535
ī	-10.3543
▁Wrestling	-10.3543
zh	-10.3545
Ro	-10.355
ball	-10.3552
▁firm	-10.3553
ference	-10.3554
▁Rose	-10.3555
▁determine	-10.356
▁Arabic	-10.3562
anda	-10.3563
▁businessman	-10.3564
▁reactions	-10.3564
EC	-10.3571
▁extend	-10.3572
Pa	-10.3574
▁tourist	-10.3583
▁Space	-10.3584
▁Var	-10.3585
▁competed	-10.359
▁management	-10.3591
▁piano	-10.3592
▁Marshall	-10.3596
▁toward	-10.36
▁cult	-10.3602
▁1918	-10.3604
Ar	-10.3607
▁Nazi	-10.3607
pul	-10.361
term	-10.3611
▁Pur	-10.3615
9%	-10.3617
▁combination	-10.3623
wel	-10.3623
▁Count	-10.3624
▁someone	-10.3625
▁ions	-10.3628
▁(5	-10.3628
▁Moscow	-10.3631
▁attention	-10.3631
yu	-10.3639
▁intended	-10.3639
▁Prussian	-10.3644
▁uranium	-10.3647
▁Girl	-10.3647
▁presented	-10.365
▁Sen	-10.365
▁Byzantine	-10.3663
▁medieval	-10.3663
▁Ming	-10.3664
▁leave	-10.3668
▁musicians	-10.367
▁necessary	-10.3671
called	-10.3671
▁importance	-10.3673
▁collapse	-10.3679
▁moon	-10.368
▁Southampton	-10.3687
▁Channel	-10.3688
▁zinc	-10.3695
▁cal	-10.37
▁literary	-10.3704
▁Bible	-10.3707
point	-10.3709
tell	-10.3712
▁cu	-10.3713
▁Dell	-10.3719
▁elevator	-10.372
▁managed	-10.372
▁soft	-10.3725
▁fresh	-10.3728
aught	-10.3728
▁Joe	-10.373
▁discuss	-10.3734
▁partner	-10.3735
▁Development	-10.3736
▁inhabitants	-10.3736
▁sequel	-10.3736
▁closed	-10.3738
▁alcohol	-10.3744
▁Cat	-10.3747
MS	-10.3751
▁Frederick	-10.3752
▁proteins	-10.3758
▁lasted	-10.3766
room	-10.3777
pat	-10.379
▁leaving	-10.3793
tory	-10.3797
later	-10.38
▁hurricane	-10.3801
▁immigrant	-10.3801
▁noble	-10.3804
▁Master	-10.3804
▁suffered	-10.3809
▁clothing	-10.3809
▁critics	-10.3826
Ba	-10.3831
▁Estonia	-10.3833
▁wrestling	-10.3834
gel	-10.3841
Re	-10.3842
▁2014)	-10.3847
▁Mediterranean	-10.3859
▁je	-10.3861
▁camp	-10.3862
▁Wil	-10.3867
▁efforts	-10.387
tract	-10.3872
▁finally	-10.3875
ū	-10.3875
▁Belgium	-10.3875
▁mathematics	-10.3875
▁atmosphere	-10.3875
▁officers	-10.3876
▁workers	-10.3878
▁chosen	-10.3879
▁composition	-10.3883
▁Den	-10.3884
range	-10.3886
▁friends	-10.389
▁bodies	-10.3892
7%	-10.3892
▁sixth	-10.3893
▁Euro	-10.3908
▁wild	-10.3909
▁sugar	-10.3919
▁strip	-10.393
OS	-10.3931
▁hill	-10.3932
▁brief	-10.3933
▁medium	-10.3933
▁cable	-10.3939
6||0	-10.3941
▁Ji	-10.3944
mount	-10.3945
book	-10.395
▁athlete	-10.3958
▁vo	-10.3967
hn	-10.397
▁users	-10.3973
nny	-10.3974
▁Xbox	-10.3976
▁loan	-10.3976
▁Real	-10.3982
▁selection	-10.3985
▁rep	-10.3987
▁opposite	-10.3991
▁photograph	-10.3992
▁Roger	-10.3999
▁drop	-10.4005
▁ancestry	-10.4008
una	-10.4015
▁Tucson	-10.4016
▁End	-10.4018
▁engineering	-10.4037
osaur	-10.4038
▁Burke	-10.4039
band	-10.404
▁Even	-10.4041
−	-10.4042
▁Ukraine	-10.405
▁liberal	-10.405
▁watch	-10.4053
▁predict	-10.4054
▁establishments	-10.4055
▁Tower	-10.4059
songwriter	-10.4062
▁platform	-10.4067
▁forward	-10.4068
▁Rob	-10.4069
night	-10.407
▁Fri	-10.4083
fall	-10.4084
▁Camp	-10.4085
ij	-10.4086
cio	-10.4091
▁frequency	-10.4092
rew	-10.4096
▁Mayor	-10.4097
▁opposed	-10.4099
▁Thus	-10.4099
▁despite	-10.41
▁Tokyo	-10.41
ternal	-10.4102
||||||||||	-10.4111
▁Muhammad	-10.4117
▁density	-10.4117
▁phone	-10.4119
▁expand	-10.4119
new	-10.4122
▁Nanjing	-10.4126
▁thing	-10.4131
ense	-10.4133
▁Theatre	-10.4135
icide	-10.4141
▁debate	-10.4147
▁sell	-10.4147
▁reviews	-10.415
including	-10.4151
▁fighting	-10.4154
▁happens	-10.4156
▁Board	-10.4158
▁Anglo	-10.4162
▁classes	-10.4162
▁trial	-10.4169
gon	-10.4172
▁bear	-10.4172
▁Reform	-10.4174
▁dominant	-10.4177
▁premier	-10.4177
▁electron	-10.4188
▁Norway	-10.4188
▁etc	-10.4191
▁expected	-10.4195
▁fell	-10.4201
▁crop	-10.4202
▁Apollo	-10.4202
phe	-10.4203
▁Wor	-10.4205
▁reserve	-10.4206
▁Team	-10.4209
cel	-10.4212
▁adopt	-10.4219
▁Commonwealth	-10.4219
▁Place	-10.4225
▁van	-10.4227
▁migration	-10.4228
ão	-10.4229
▁Foundation	-10.4231
▁pick	-10.4234
▁Stan	-10.4235
▁Lady	-10.4237
▁fully	-10.424
▁Family	-10.4245
▁dollar	-10.4248
▁Qing	-10.4252
▁Democrat	-10.4254
▁Dame	-10.4261
▁Business	-10.4262
▁Along	-10.4265
▁universe	-10.4271
▁Field	-10.4271
An	-10.4297
▁paid	-10.4298
▁Fire	-10.4302
▁commander	-10.4304
▁weapons	-10.4309
sses	-10.4309
▁physics	-10.4314
▁defense	-10.4314
▁earned	-10.4315
chu	-10.4316
▁Cru	-10.4317
▁Region	-10.4322
▁reading	-10.4335
▁principal	-10.4339
▁segment	-10.434
▁Taiwan	-10.4348
▁Ir	-10.4354
▁align	-10.4356
ú	-10.4357
▁prey	-10.4357
ional	-10.4362
word	-10.4369
▁imm	-10.4371
ographic	-10.4373
▁Connecticut	-10.4374
="	-10.4374
tribute	-10.4381
▁NHL	-10.4382
mont	-10.4382
▁dispute	-10.4385
▁virus	-10.4385
bol	-10.4388
power	-10.439
▁deliver	-10.4392
▁geo	-10.4395
▁Phil	-10.4399
▁equipment	-10.44
▁prince	-10.44
▁inspired	-10.4409
▁push	-10.4418
▁fashion	-10.4426
related	-10.443
▁separated	-10.4431
▁institution	-10.4432
app	-10.4434
▁BCE	-10.4438
▁why	-10.4439
▁Mongol	-10.4444
▁fluid	-10.4453
▁establishment	-10.4454
▁exact	-10.446
▁initial	-10.4461
▁baseball	-10.4462
▁greatly	-10.4465
▁Kha	-10.4466
tress	-10.4468
quo	-10.447
▁increasingly	-10.4471
▁moment	-10.4473
worth	-10.4479
▁analysis	-10.4496
down	-10.4499
▁Hospital	-10.4505
▁minutes	-10.4507
▁promoted	-10.4509
▁map	-10.4513
▁colour	-10.4514
▁attempted	-10.4517
race	-10.4518
▁rural	-10.4519
count	-10.452
body	-10.4521
▁mechanism	-10.4523
▁extremely	-10.4529
▁Angel	-10.453
▁fair	-10.4533
▁learn	-10.4534
▁1921	-10.4537
2,000	-10.4539
▁spend	-10.4547
▁consul	-10.4548
▁challenge	-10.4549
▁mandolin	-10.4549
▁opposition	-10.455
▁Whitehead	-10.455
▁skill	-10.4553
▁understanding	-10.4556
▁restaurant	-10.4558
▁renamed	-10.4558
▁Bureau	-10.4558
▁confirmed	-10.4563
▁Kir	-10.4563
▁husband	-10.4567
▁lies	-10.4567
▁pure	-10.4568
▁senior	-10.4575
▁poetry	-10.4576
▁staff	-10.4582
▁Professor	-10.4584
▁Azerbaijan	-10.4593
▁Justice	-10.4594
▁colony	-10.4602
▁Final	-10.4605
aff	-10.461
▁Arizona	-10.4611
We	-10.4615
▁Spring	-10.4615
▁Tele	-10.462
▁fiber	-10.4627
▁Labour	-10.4629
cast	-10.4632
▁Chile	-10.4633
▁Arch	-10.4633
cca	-10.4635
▁Il	-10.4635
itor	-10.4642
▁imperial	-10.4646
▁Harris	-10.4658
▁Social	-10.4658
BA	-10.466
▁Sony	-10.4663
▁Ak	-10.4665
present	-10.4665
▁strike	-10.4667
aki	-10.467
▁twenty	-10.4673
CO	-10.4676
▁metres	-10.4678
▁achieved	-10.4681
▁meters	-10.4688
||1||0	-10.4696
▁songwriter	-10.4696
▁promote	-10.4697
▁choice	-10.4702
▁Kur	-10.4703
▁Wild	-10.4704
▁habitat	-10.4709
US	-10.4709
trop	-10.4713
lement	-10.4713
▁setting	-10.4718
hl	-10.472
▁IV	-10.4721
mul	-10.4723
▁orientation	-10.4727
▁refused	-10.4727
▁card	-10.4732
▁nomination	-10.4732
▁spot	-10.4734
2||1	-10.4736
ika	-10.4739
ograph	-10.4739
▁rare	-10.4741
▁trace	-10.4743
▁Post	-10.4745
▁core	-10.4752
▁thick	-10.4759
▁orchestra	-10.4763
▁Only	-10.4764
▁Coast	-10.4764
▁advanced	-10.4766
gna	-10.4769
▁converted	-10.4769
▁descent	-10.4773
▁parent	-10.478
▁founding	-10.4781
▁YouTube	-10.4781
▁commission	-10.4781
▁Indonesia	-10.4781
via	-10.4783
▁borough	-10.4784
▁Dun	-10.4787
crat	-10.479
▁dioxide	-10.4808
▁Madrid	-10.4808
▁poem	-10.4813
▁couple	-10.4814
▁Bon	-10.4823
▁hormone	-10.4826
▁Punjab	-10.4826
▁sought	-10.4835
▁draft	-10.4836
▁Argentina	-10.4844
▁sail	-10.4846
▁Tim	-10.4849
▁franchise	-10.4853
▁diet	-10.4857
▁popularity	-10.4859
▁Library	-10.4863
▁regime	-10.4863
▁formerly	-10.4868
▁northwest	-10.4875
▁Fair	-10.4876
▁guitarist	-10.4878
▁exclusive	-10.4881
▁Guard	-10.4884
▁Harry	-10.4885
▁Cur	-10.4887
▁palace	-10.489
under	-10.4891
▁Blo	-10.4892
▁mind	-10.4897
kan	-10.4908
||2||0||	-10.4915
▁1914	-10.4924
grad	-10.4924
▁Band	-10.4929
▁Wall	-10.493
ngel	-10.4931
▁rapid	-10.4937
▁rapper	-10.4937
▁starring	-10.4938
▁Natural	-10.4945
▁Jay	-10.4945
hop	-10.4949
CC	-10.4953
▁Cyprus	-10.4954
▁accident	-10.4954
▁normally	-10.4956
heim	-10.4956
▁brand	-10.4957
▁Fame	-10.4959
▁Conference	-10.4966
▁ordered	-10.497
pot	-10.4976
▁Sto	-10.4977
▁USB	-10.4979
▁bra	-10.4984
▁aired	-10.4991
▁Bangladesh	-10.4991
▁comment	-10.4996
▁leadership	-10.4996
IS	-10.5
▁freedom	-10.5003
▁Clark	-10.5004
▁+	-10.5008
▁Heart	-10.5012
▁effort	-10.5015
▁determined	-10.5017
▁visible	-10.5019
▁regulation	-10.5028
▁depict	-10.503
▁bright	-10.5034
ware	-10.5037
▁voltage	-10.5037
▁notably	-10.5038
▁Area	-10.504
bur	-10.5048
▁switch	-10.505
roll	-10.5054
▁Qua	-10.5054
▁graduated	-10.5055
▁300	-10.5056
▁advance	-10.5061
▁walk	-10.5062
blo	-10.5064
▁Head	-10.5064
▁Building	-10.5065
▁DC	-10.5066
▁destroy	-10.5068
July	-10.507
▁programme	-10.5073
▁Toronto	-10.5074
get	-10.5077
logy	-10.508
▁organic	-10.5082
▁lamp	-10.5089
▁Raj	-10.5089
▁classification	-10.5096
▁2016)	-10.5096
MA	-10.5101
ا	-10.5102
▁dedicated	-10.5102
▁balance	-10.5102
▁narrow	-10.5104
▁buy	-10.5105
▁Among	-10.5107
▁regard	-10.511
roy	-10.5111
▁crystal	-10.5111
yard	-10.5123
▁Serbia	-10.5123
▁Cop	-10.5128
mid	-10.5129
▁nucle	-10.5136
▁Plot	-10.514
▁beat	-10.5146
▁Baptist	-10.5149
▁rose	-10.5154
▁convert	-10.5155
и	-10.5158
▁vertebra	-10.5158
▁ancestor	-10.5158
▁Cle	-10.5159
▁vice	-10.516
▁discovery	-10.5167
▁technical	-10.5168
▁garden	-10.5168
▁trait	-10.5169
▁Just	-10.5172
kha	-10.5172
▁Bull	-10.5173
efficient	-10.5177
ré	-10.5177
▁Cap	-10.5188
▁visited	-10.519
▁labour	-10.5196
▁Name	-10.5199
▁Cam	-10.5201
cycle	-10.521
▁antibiotic	-10.5215
rill	-10.5219
▁statement	-10.5222
▁Peninsula	-10.5234
▁external	-10.5235
▁(15	-10.5235
▁1919	-10.5239
▁fear	-10.524
Le	-10.5241
▁(6	-10.5242
▁column	-10.5243
▁LED	-10.5243
▁request	-10.5243
▁Walter	-10.5245
▁shell	-10.5247
▁Sunday	-10.5247
num	-10.5248
▁seek	-10.5251
▁organisation	-10.5254
▁civilian	-10.5258
▁Cuba	-10.5259
▁youth	-10.5263
▁Police	-10.5265
▁scientist	-10.5267
▁mode	-10.5268
▁authorities	-10.5269
▁Play	-10.5273
▁moral	-10.5274
▁successor	-10.5277
▁Tito	-10.5283
▁constructed	-10.5285
▁Ball	-10.5288
▁occasion	-10.5288
▁FA	-10.529
▁Puerto	-10.529
▁Tony	-10.5292
▁mill	-10.5296
▁alphabet	-10.53
â	-10.5309
▁Technology	-10.5309
▁Centre	-10.531
▁alter	-10.5318
▁conservative	-10.5319
▁doctrine	-10.5319
▁storage	-10.5319
tile	-10.5323
▁painter	-10.5326
о	-10.5328
▁adventure	-10.5328
▁Liberal	-10.5338
▁Rights	-10.5339
▁whereas	-10.5347
▁Missouri	-10.5348
▁Way	-10.5351
▁depending	-10.5353
▁component	-10.5356
▁rating	-10.5359
▁Baseball	-10.5367
▁criminal	-10.5367
▁emerged	-10.5376
–18	-10.5383
▁useful	-10.5385
▁Coll	-10.5392
▁mechanical	-10.5405
▁Tam	-10.5408
▁Fall	-10.5414
▁consumer	-10.5415
="5"|	-10.5424
▁incorporated	-10.5425
ective	-10.5427
▁actual	-10.5428
▁Sometimes	-10.5434
▁Fred	-10.5438
▁mouth	-10.5439
people	-10.5442
▁cook	-10.5443
vy	-10.5447
▁Greater	-10.5453
ibility	-10.5454
▁Quran	-10.5466
▁clock	-10.5471
▁Economic	-10.5473
▁Tuvalu	-10.5473
▁brown	-10.5473
▁investment	-10.5475
7||0	-10.5476
▁fine	-10.5482
▁respond	-10.5482
▁roughly	-10.5492
1||1	-10.5496
▁Jim	-10.5499
▁Convention	-10.5502
▁Spielberg	-10.5502
▁bought	-10.5502
▁Security	-10.5511
▁admi	-10.5511
▁alongside	-10.5519
▁Taylor	-10.5531
sexual	-10.5531
▁Unlike	-10.5532
▁kilometres	-10.5541
▁housing	-10.5541
▁page	-10.5543
gni	-10.5549
▁grant	-10.5557
▁identify	-10.556
▁Bavaria	-10.5561
pet	-10.5566
▁tower	-10.5569
▁Hyderabad	-10.557
▁thriller	-10.557
▁enjoy	-10.557
▁changing	-10.557
▁understand	-10.5576
▁maintained	-10.5581
▁attraction	-10.5589
▁expression	-10.5593
▁150	-10.56
▁progress	-10.5604
α	-10.5609
January	-10.5619
▁search	-10.5623
pher	-10.5627
maker	-10.5627
▁Stephen	-10.5629
▁typical	-10.5629
▁outer	-10.5634
▁Paralympic	-10.5638
▁background	-10.5638
▁string	-10.5641
▁chairman	-10.5642
▁counties	-10.5643
▁Marvel	-10.5647
▁maximum	-10.5648
▁proportion	-10.5648
▁Medical	-10.5648
▁Guinea	-10.5649
▁Medal	-10.565
▁Catalan	-10.5658
▁Open	-10.566
▁pitch	-10.5663
▁focused	-10.5668
▁crown	-10.5669
▁programming	-10.5671
▁naval	-10.5672
▁Chris	-10.5673
▁meat	-10.5674
pop	-10.5676
▁jazz	-10.5678
▁Donald	-10.5678
▁contribution	-10.5679
▁Uni	-10.5683
▁constitutional	-10.5685
Bundesliga	-10.5688
note	-10.5689
▁tall	-10.5698
▁Though	-10.5702
▁Metro	-10.5702
▁pest	-10.5704
▁preserve	-10.5705
▁policies	-10.5708
▁license	-10.5708
▁radi	-10.5712
▁newly	-10.5713
▁fundamental	-10.5727
▁Denmark	-10.5728
RA	-10.5733
▁Media	-10.5736
▁Dur	-10.5737
▁Nico	-10.5739
organ	-10.5743
8||0	-10.5744
▁rapidly	-10.5749
▁Castle	-10.5753
▁2015)	-10.5754
standing	-10.5755
hold	-10.5756
▁subsequent	-10.5757
▁melt	-10.5758
▁existed	-10.5759
cies	-10.5761
▁stem	-10.5763
▁Christopher	-10.5767
▁FBI	-10.5767
▁review	-10.5768
▁Indiana	-10.5769
▁saying	-10.577
▁nor	-10.5775
▁screenwriter	-10.5777
▁Pap	-10.5781
▁gradually	-10.5783
▁vast	-10.5788
ambi	-10.5789
▁trip	-10.5791
▁reality	-10.5797
▁Swa	-10.5797
▁Death	-10.5802
▁existing	-10.5817
▁continuous	-10.5817
▁northeast	-10.5821
▁export	-10.5823
▁Slavic	-10.5827
▁arrived	-10.583
▁suggested	-10.5832
▁1917	-10.5834
mag	-10.5837
▁fun	-10.584
▁hotel	-10.5841
▁VII	-10.5842
▁speakers	-10.5845
metric	-10.5857
▁Federation	-10.5857
▁Leader	-10.5858
August	-10.5859
▁alone	-10.5864
▁Labor	-10.5866
▁visual	-10.5868
▁quite	-10.5868
▁permit	-10.5884
▁(8	-10.5888
▁let	-10.5889
▁armed	-10.5889
empt	-10.5894
▁Ukrainian	-10.5898
▁alliance	-10.5898
▁Moon	-10.5908
▁output	-10.5913
gie	-10.5914
▁Kra	-10.5915
▁theater	-10.592
NE	-10.592
ote	-10.5926
▁Sky	-10.5926
He	-10.5934
▁acquired	-10.5937
▁Afghanistan	-10.5938
▁Arsenal	-10.5938
▁deposit	-10.5938
▁originated	-10.5939
▁improve	-10.5939
September	-10.5941
▁Foreign	-10.5948
▁door	-10.5951
▁Pala	-10.5952
▁Cathedral	-10.5958
▁heavily	-10.5958
▁user	-10.5962
▁exercise	-10.5968
▁negotiat	-10.5979
▁Sanskrit	-10.5979
▁Finland	-10.5979
▁hall	-10.5981
▁attacked	-10.5981
▁interaction	-10.5981
▁coming	-10.5983
wide	-10.5988
▁Jerusalem	-10.5989
▁Minnesota	-10.5989
▁fleet	-10.5989
▁combat	-10.5989
▁Seven	-10.5997
▁library	-10.5999
▁Mir	-10.5999
▁ratio	-10.601
▁Near	-10.6013
▁Sav	-10.6018
▁magnetic	-10.602
▁trading	-10.603
▁causing	-10.603
▁Estonian	-10.6031
▁(10	-10.6036
▁bat	-10.6039
▁diver	-10.6044
IC	-10.6046
front	-10.605
▁pull	-10.6053
▁mentioned	-10.6056
▁Tan	-10.6058
▁significantly	-10.6062
December	-10.6064
▁Gulf	-10.607
Bo	-10.6071
▁survive	-10.6071
▁touch	-10.6077
pin	-10.6079
▁Singapore	-10.6081
▁parallel	-10.6081
▁promotion	-10.6081
▁33	-10.6087
▁feel	-10.6089
▁revealed	-10.609
▁universal	-10.6091
▁providing	-10.6091
fort	-10.6093
▁Ref	-10.6093
scope	-10.6102
▁Kim	-10.6104
▁Eli	-10.6106
▁thin	-10.6108
▁lose	-10.611
▁traditionally	-10.6112
▁express	-10.613
▁Prefecture	-10.6132
▁marine	-10.6133
▁labor	-10.6135
▁whi	-10.6139
▁Jam	-10.6142
▁cloud	-10.6143
▁stress	-10.6144
▁coastal	-10.6151
▁rebel	-10.6152
▁patient	-10.6153
▁sample	-10.6153
▁entirely	-10.6156
weight	-10.6156
April	-10.6158
▁atomic	-10.6158
▁Rh	-10.6162
▁Domin	-10.6165
▁nucleus	-10.6172
scription	-10.6173
▁Alfred	-10.6174
▁producing	-10.6182
▁Sim	-10.6182
▁younger	-10.6185
▁horror	-10.6195
▁Bengal	-10.6197
dict	-10.6197
▁theories	-10.6203
▁scored	-10.6204
▁victim	-10.6205
October	-10.6211
▁molecule	-10.6213
▁Community	-10.6215
▁Special	-10.6215
▁estimate	-10.6216
▁task	-10.6221
▁400	-10.6225
▁hunter	-10.6225
▁facilities	-10.6226
▁flood	-10.6226
▁graduate	-10.6227
▁conducted	-10.6227
▁Southeast	-10.6227
onym	-10.6233
▁Lower	-10.6237
▁charged	-10.6238
▁Mol	-10.624
▁fur	-10.6242
▁Crown	-10.6247
June	-10.6253
▁lit	-10.6253
▁diverse	-10.6255
▁mixture	-10.6259
š	-10.6268
▁intellectual	-10.6268
▁Oxford	-10.6268
▁gender	-10.6268
commun	-10.6269
▁1912	-10.6276
▁Shu	-10.6287
▁Rod	-10.6289
dale	-10.6292
▁Wilson	-10.6293
▁conductor	-10.6295
▁Luther	-10.6298
▁neutral	-10.6299
▁1910	-10.63
▁replace	-10.63
▁personality	-10.6302
▁clean	-10.6302
▁asked	-10.6305
▁Walt	-10.6311
▁try	-10.6312
▁pet	-10.6313
0||0||0||0||0||0	-10.6315
▁Alabama	-10.632
▁collaborat	-10.632
▁Organization	-10.6321
duction	-10.6327
TA	-10.633
▁measured	-10.6331
▁agriculture	-10.6331
▁WWE	-10.6331
▁genome	-10.6331
▁pilot	-10.6331
▁...	-10.6334
▁favour	-10.6341
▁transmission	-10.6343
▁roll	-10.6352
▁boat	-10.6352
update	-10.6353
▁comprise	-10.6364
▁Standard	-10.6373
née	-10.6375
▁Garden	-10.6388
ending	-10.6392
source	-10.6392
▁stored	-10.6392
▁1911	-10.6393
▁dominated	-10.6395
▁transmit	-10.6397
March	-10.6397
magnet	-10.6406
▁extent	-10.6407
▁spoke	-10.6416
▁Milan	-10.6421
▁Circ	-10.6423
▁safe	-10.6424
▁equivalent	-10.6426
▁improved	-10.6426
▁Anthony	-10.6437
▁rejected	-10.6438
▁items	-10.6442
▁Kin	-10.6443
▁contributed	-10.6446
▁Christmas	-10.6448
Hispanic	-10.6448
▁dress	-10.6449
▁coup	-10.645
turn	-10.6467
▁Fun	-10.6468
bach	-10.6473
▁App	-10.6479
▁Every	-10.648
Man	-10.6482
▁manufacture	-10.6483
е	-10.649
▁Warner	-10.6495
▁Shar	-10.6496
▁Notre	-10.6497
▁Hurricane	-10.6501
▁Child	-10.6502
from	-10.6503
break	-10.6504
▁containing	-10.6508
▁struggle	-10.6512
illus	-10.6517
▁Hayek	-10.6522
▁Third	-10.6522
▁Mississippi	-10.6533
featuring	-10.6533
▁expressed	-10.6535
Mar	-10.6537
▁holding	-10.6538
drew	-10.6539
É	-10.6544
▁NBC	-10.6544
▁exhibit	-10.6547
▁southeast	-10.6547
February	-10.6553
▁stock	-10.6553
▁lowest	-10.6559
▁subsequently	-10.6566
assi	-10.6572
▁Well	-10.6573
▁phrase	-10.6576
▁copyright	-10.6577
▁killing	-10.6582
▁massive	-10.6585
▁Due	-10.6587
type	-10.6587
▁Simon	-10.6595
▁declar	-10.6598
▁Mario	-10.6606
▁fly	-10.661
▁Indo	-10.6614
▁celebrated	-10.6615
▁achieve	-10.6617
▁Warsaw	-10.662
▁Six	-10.663
▁oxide	-10.6631
▁southwest	-10.6634
ić	-10.6638
▁Temple	-10.6641
▁Lodge	-10.6641
▁soul	-10.6643
▁Franco	-10.6649
largest	-10.6651
▁viewed	-10.6652
*	-10.6652
▁throne	-10.6652
▁else	-10.6653
▁frame	-10.6656
▁coll	-10.6657
▁Howard	-10.666
▁Affairs	-10.6663
gio	-10.6665
▁Bond	-10.6666
▁Anne	-10.6667
▁retail	-10.6672
▁Renaissance	-10.6674
▁Hungary	-10.6674
▁Presbyterian	-10.6685
▁Ministry	-10.6685
▁Country	-10.6692
▁Merc	-10.6694
▁Belgian	-10.6696
▁fit	-10.6698
▁window	-10.6699
▁told	-10.67
direct	-10.67
feld	-10.6701
▁Sound	-10.6707
▁slightly	-10.6707
▁arrest	-10.6707
▁select	-10.6709
▁guard	-10.671
▁airline	-10.6711
▁argue	-10.6714
November	-10.6717
▁opinion	-10.6718
▁agency	-10.6723
▁neighbour	-10.6729
▁Lewis	-10.6729
▁translated	-10.674
▁immediately	-10.6741
▁crash	-10.6742
▁Patrick	-10.6751
▁Marie	-10.6752
▁neighbor	-10.6761
▁Heritage	-10.6762
▁message	-10.6762
hand	-10.6768
▁manufacturer	-10.6769
▁disorder	-10.6773
▁Palm	-10.6777
▁polar	-10.6778
far	-10.6782
▁escape	-10.6784
▁alloy	-10.6786
▁legend	-10.6786
▁Mand	-10.6786
▁repeated	-10.6793
▁Steven	-10.6794
▁Scientists	-10.6795
life	-10.6798
▁succeeded	-10.6805
cient	-10.6808
▁plain	-10.6808
▁gall	-10.6808
bacter	-10.681
inch	-10.6814
gui	-10.6816
▁bombing	-10.6824
3||1	-10.6825
▁adolescent	-10.6828
▁sponsor	-10.6828
▁Sydney	-10.6839
▁dropped	-10.684
▁nerve	-10.684
▁contestant	-10.6846
▁manufacturing	-10.685
▁Est	-10.6852
▁Montana	-10.6852
▁Note	-10.6853
▁Nik	-10.6857
▁Point	-10.6858
ː	-10.6861
▁Wolf	-10.6866
▁singing	-10.6868
▁edge	-10.6869
▁Lincoln	-10.6872
bir	-10.6874
rise	-10.6878
▁distinction	-10.6879
▁insect	-10.6881
▁expensive	-10.6883
▁Examples	-10.6895
▁incident	-10.6895
rip	-10.6896
▁Story	-10.6902
mart	-10.6902
▁journal	-10.6909
▁educational	-10.691
fish	-10.6912
▁span	-10.6913
▁bronze	-10.6917
▁enzyme	-10.6928
▁perhaps	-10.6928
▁molecular	-10.6939
▁sleep	-10.6939
▁Your	-10.6952
ür	-10.6954
Saxon	-10.6955
▁Kennedy	-10.6962
▁CBS	-10.6962
▁Non	-10.6963
▁Rhine	-10.6966
▁acted	-10.6969
▁Leon	-10.6969
▁Germanic	-10.697
▁protected	-10.697
▁Stanley	-10.6975
▁interpretation	-10.6977
▁continental	-10.6981
▁contest	-10.6982
▁Hollywood	-10.6984
▁architectural	-10.6985
▁save	-10.6986
▁commune	-10.6986
▁Album	-10.6996
▁Dream	-10.6996
▁extinct	-10.6997
ridge	-10.7001
400	-10.7001
▁Enlightenment	-10.7007
▁Lawrence	-10.7007
▁Artist	-10.701
▁Epi	-10.7014
▁Municipal	-10.7018
▁vacuum	-10.7018
▁driver	-10.7018
▁Front	-10.7019
mbo	-10.7026
▁appeal	-10.703
▁thousand	-10.7032
▁prepare	-10.704
▁Beijing	-10.7041
▁fixed	-10.7041
▁Galicia	-10.7043
▁branches	-10.7049
▁cardinal	-10.7052
▁panel	-10.7054
▁Wei	-10.7056
▁meta	-10.7056
llar	-10.7057
mitt	-10.7067
▁grass	-10.7071
rose	-10.7074
▁Current	-10.7075
▁analog	-10.7085
▁Bishop	-10.7086
rang	-10.709
4||1	-10.7094
▁proved	-10.7094
▁cricket	-10.7097
▁Mike	-10.7104
▁Hard	-10.7107
▁360	-10.7112
▁ruling	-10.7114
▁ultimately	-10.7117
▁finding	-10.7118
▁Bulgaria	-10.712
▁sort	-10.7122
uv	-10.7135
print	-10.7136
▁approved	-10.7143
▁José	-10.7144
▁Operation	-10.7145
▁Now	-10.7148
▁Karl	-10.7158
▁grown	-10.7159
▁intelligence	-10.7166
▁violence	-10.7166
▁Hawaii	-10.7166
▁enemy	-10.7166
3,000	-10.7167
▁Video	-10.717
scale	-10.717
▁stable	-10.7177
à	-10.7177
▁budget	-10.7177
▁raid	-10.7179
pit	-10.7186
▁Century	-10.7189
▁entertainment	-10.7189
▁register	-10.7189
▁Hebrew	-10.7189
▁observed	-10.7195
▁hole	-10.7197
▁Pass	-10.72
▁divorce	-10.72
▁apparent	-10.72
▁observation	-10.72
lord	-10.7202
▁Pont	-10.7202
▁Territory	-10.7212
▁huge	-10.7212
▁steel	-10.7212
▁grain	-10.7212
▁worth	-10.7213
▁Organ	-10.7215
tail	-10.7216
▁Knight	-10.7218
▁drum	-10.7223
▁Metropolitan	-10.7223
▁sustain	-10.7224
▁Julian	-10.7224
dorf	-10.7224
▁linked	-10.7231
▁Sab	-10.7232
▁Kid	-10.7233
▁Dynasty	-10.7235
▁Electric	-10.7235
▁Neptune	-10.7235
▁Johann	-10.7235
ulf	-10.7236
▁Manchu	-10.7237
▁representing	-10.7238
▁Mountain	-10.7242
ł	-10.7247
▁Dominican	-10.7247
▁net	-10.7248
▁felt	-10.725
▁pioneer	-10.7258
▁usage	-10.7259
▁sole	-10.7267
jan	-10.7269
▁rhythm	-10.727
▁conquest	-10.727
▁Gothic	-10.727
hon	-10.7277
▁assassin	-10.7281
▁tail	-10.7284
▁crew	-10.7284
▁portray	-10.7284
▁Schwarzenegger	-10.7293
▁Samuel	-10.7293
▁withdraw	-10.7293
▁(12	-10.7295
▁Brit	-10.7301
ector	-10.7304
▁execution	-10.7305
▁wavelength	-10.7305
▁internet	-10.7307
media	-10.7309
▁regulate	-10.7316
▁safety	-10.7319
▁formally	-10.7322
DA	-10.7324
▁hum	-10.7337
▁Site	-10.7338
▁municipalities	-10.7341
▁testing	-10.7342
▁Staff	-10.7342
▁Earl	-10.7348
▁merged	-10.7351
▁practical	-10.7351
▁employed	-10.7352
▁ceremony	-10.7363
language	-10.7368
▁characteristic	-10.737
▁gland	-10.7372
▁Colorado	-10.7374
▁substantial	-10.7374
▁Marine	-10.7375
▁extreme	-10.7378
enberg	-10.7382
throp	-10.7385
▁equation	-10.7387
▁Steve	-10.7388
▁Barb	-10.7388
▁Franklin	-10.7389
▁Kat	-10.7398
▁surrounded	-10.7398
▁strongly	-10.7401
▁Neu	-10.7402
▁contained	-10.7408
▁mobile	-10.741
▁debt	-10.7424
▁Gil	-10.7425
▁Motor	-10.7426
▁Dam	-10.7428
▁punk	-10.743
▁Victor	-10.7431
after	-10.7433
▁Wu	-10.7433
▁Namibia	-10.7433
▁Cape	-10.7434
▁desire	-10.7438
▁learned	-10.7444
▁residence	-10.7445
▁virtual	-10.7445
▁broken	-10.7453
AM	-10.7455
▁Kathmandu	-10.7457
▁investigation	-10.7457
▁sto	-10.7458
electric	-10.7463
vant	-10.7464
▁Plant	-10.7465
▁agricultural	-10.748
▁Ronald	-10.748
▁diversity	-10.7481
▁declined	-10.7481
▁cinema	-10.7481
▁designer	-10.7481
▁finish	-10.7485
bru	-10.7488
level	-10.7492
▁Michel	-10.7494
▁Lind	-10.7504
▁possess	-10.7508
▁remove	-10.7509
▁Matt	-10.7512
▁successfully	-10.7515
▁Trade	-10.7523
▁dramatic	-10.7526
▁executed	-10.7528
▁plastic	-10.753
▁Allen	-10.7543
▁criticism	-10.7546
▁transportation	-10.756
▁Bermuda	-10.7563
▁Caribbean	-10.7563
▁Russell	-10.7563
▁Cubs	-10.7565
▁discover	-10.7566
▁Eritrea	-10.7575
▁Brooklyn	-10.7575
▁Juan	-10.7579
▁Anna	-10.758
▁$2	-10.7586
▁guide	-10.7595
▁bottom	-10.7599
▁capacitor	-10.7599
▁Report	-10.7608
tag	-10.7611
▁BYU	-10.7611
▁IBM	-10.7611
▁agree	-10.7623
300	-10.7629
wick	-10.7633
▁industries	-10.7635
▁Kam	-10.7641
▁regarding	-10.7642
▁Whit	-10.7646
▁arrested	-10.7647
▁Energy	-10.7647
▁illegal	-10.7647
▁participated	-10.7648
▁debuted	-10.7648
▁Minor	-10.765
▁occupation	-10.7659
▁bulb	-10.766
▁estate	-10.766
||0||0||0||0||	-10.7662
▁ensure	-10.7672
▁Yugoslavia	-10.7677
▁mental	-10.7677
▁thermal	-10.7677
▁genera	-10.7678
arrow	-10.7679
▁Argentine	-10.7683
▁categories	-10.7683
▁hour	-10.769
▁Acc	-10.7691
▁digest	-10.7691
▁Conservative	-10.7696
▁Quebec	-10.7696
RT	-10.7696
FC	-10.7706
▁characterized	-10.7707
▁Military	-10.7708
▁introduction	-10.7708
▁experienced	-10.7712
▁laid	-10.7713
person	-10.7714
▁load	-10.7715
▁Know	-10.7716
▁Politicians	-10.772
▁cathedral	-10.772
cut	-10.7724
▁Brian	-10.7725
▁voted	-10.7728
▁Shah	-10.7733
▁Qui	-10.7734
▁shore	-10.7735
▁Eva	-10.7739
▁selling	-10.7741
ô	-10.7744
▁Cardinal	-10.7744
▁denomination	-10.7744
▁temp	-10.7753
▁Liverpool	-10.7756
▁scheme	-10.7756
fold	-10.7756
▁Alan	-10.7763
▁Anton	-10.7766
▁accused	-10.7766
▁Maryland	-10.7767
▁Louisiana	-10.7768
▁Northwestern	-10.7771
▁classic	-10.7771
▁Down	-10.7773
▁capture	-10.7778
▁agencies	-10.778
shaped	-10.7791
▁arrangement	-10.7793
▁strategy	-10.7793
LA	-10.7801
▁constitute	-10.7805
▁argument	-10.7805
▁profit	-10.7805
▁chemistry	-10.7807
▁Memorial	-10.7817
▁ecosystem	-10.7817
▁eliminate	-10.7817
ddle	-10.782
▁secular	-10.782
▁copy	-10.7823
bird	-10.7828
▁Medicine	-10.7829
▁glacier	-10.7829
▁nervous	-10.7829
▁Jen	-10.7832
▁Such	-10.7838
▁Code	-10.7841
fri	-10.7845
▁Ross	-10.7847
▁Buddha	-10.7854
▁worship	-10.7854
▁Comcast	-10.7855
▁Production	-10.7856
▁10,000	-10.786
▁reverse	-10.7865
▁solve	-10.7866
▁Myanmar	-10.7866
▁Cambridge	-10.7866
ín	-10.7866
▁Jane	-10.7867
▁define	-10.7873
▁CE	-10.7874
▁societies	-10.7878
▁trying	-10.788
▁1800	-10.788
▁Hart	-10.7884
▁Bowl	-10.7884
▁tank	-10.7887
▁observe	-10.7889
aire	-10.7892
▁secure	-10.7893
▁graphic	-10.7894
▁Rio	-10.79
▁Hungarian	-10.7903
▁unlike	-10.7903
▁Link	-10.7905
▁chance	-10.7908
▁specifically	-10.791
▁charter	-10.7917
▁category	-10.7928
▁Opera	-10.793
▁armies	-10.7937
▁import	-10.794
▁conference	-10.7945
▁Antarctica	-10.7951
▁interview	-10.7955
▁jurisdiction	-10.7965
▁exceed	-10.7965
=#	-10.7966
▁Bha	-10.7966
▁Kon	-10.7967
wich	-10.7969
▁Dean	-10.7975
▁Carol	-10.7975
▁hub	-10.7976
brew	-10.798
▁1880	-10.7982
▁Ice	-10.7982
▁standing	-10.7983
▁allies	-10.7998
▁monument	-10.8002
▁Upper	-10.8009
▁opponent	-10.8015
▁rob	-10.802
▁obtained	-10.802
▁attached	-10.8025
▁excess	-10.8028
▁handle	-10.8033
▁Jose	-10.8033
▁conquered	-10.8038
▁database	-10.804
▁patron	-10.804
▁Peace	-10.8042
▁consisting	-10.8044
▁performing	-10.8046
▁extinction	-10.8051
▁immune	-10.8052
▁disaster	-10.8052
4,000	-10.8054
Croatian	-10.8062
▁elevation	-10.8065
▁exposure	-10.8065
▁mathematical	-10.8065
▁Transport	-10.8067
▁rap	-10.8072
▁obtain	-10.8074
▁resist	-10.808
German	-10.809
▁Reserve	-10.809
▁Samoa	-10.8092
▁Arena	-10.8097
▁Emmy	-10.8105
▁neuro	-10.811
holder	-10.8114
▁fantasy	-10.8115
ifi	-10.8121
cott	-10.8125
▁Forest	-10.8127
▁Alps	-10.8129
hard	-10.813
▁Beach	-10.8136
MI	-10.8137
▁Dog	-10.8137
profit	-10.814
▁Charleston	-10.8141
ello	-10.8141
▁slavery	-10.8141
▁tribe	-10.8142
who	-10.8147
▁pathogen	-10.8154
▁stopped	-10.8154
▁Nick	-10.8157
▁passage	-10.8165
▁reduction	-10.8165
▁settlers	-10.8166
▁Sultan	-10.8166
▁Auto	-10.8172
made	-10.8175
▁Iowa	-10.8179
▁Balkan	-10.8179
▁Virgin	-10.8187
▁legislature	-10.8191
▁prize	-10.8201
▁dinosaur	-10.8204
▁Caesar	-10.8204
▁Comics	-10.8205
▁1908	-10.8208
▁annually	-10.8208
▁adaptation	-10.8212
ovich	-10.8225
▁Press	-10.8229
▁spiritual	-10.823
▁Once	-10.8234
▁surrender	-10.8242
9||0	-10.8242
▁Gun	-10.8243
▁Corps	-10.8247
▁Eight	-10.825
▁Westminster	-10.8255
▁neo	-10.8256
opho	-10.8264
▁seventh	-10.8267
▁resigned	-10.8267
▁Chu	-10.8279
▁twelve	-10.828
▁Defence	-10.828
▁giant	-10.8281
▁Chart	-10.8291
▁bull	-10.8292
▁Brad	-10.8293
▁civilization	-10.8297
▁Mau	-10.8299
▁committed	-10.8306
▁sensor	-10.8307
▁economist	-10.8319
▁Neumann	-10.8319
▁smallest	-10.833
▁transferred	-10.8334
conscious	-10.8345
▁Davis	-10.8353
▁1000	-10.8353
▁highway	-10.8356
liga	-10.8356
Série	-10.8357
▁illness	-10.8358
▁Socialist	-10.8358
▁mythology	-10.8372
▁sunlight	-10.8373
▁Montreal	-10.8383
▁keyboard	-10.8384
▁Low	-10.8387
▁Petr	-10.8388
bow	-10.839
▁losses	-10.8396
▁Matthew	-10.8396
▁deploy	-10.8396
▁recognise	-10.8396
▁historically	-10.8396
▁nitrogen	-10.8409
▁Kill	-10.8411
▁Until	-10.8411
▁populous	-10.8422
▁capable	-10.8423
▁Run	-10.8424
▁option	-10.8428
▁accurate	-10.8435
▁artificial	-10.8435
▁consequence	-10.8435
▁mathematician	-10.8435
▁violent	-10.8435
▁expert	-10.8436
▁divine	-10.8437
▁Jeff	-10.8438
group	-10.8443
▁Gall	-10.8446
▁pandemic	-10.8448
▁adapted	-10.845
▁Antonio	-10.845
▁wound	-10.8453
▁Bou	-10.846
▁Movement	-10.8461
▁Captain	-10.8462
zhou	-10.8464
▁coat	-10.8467
▁interpret	-10.847
▁committee	-10.8474
▁cartoon	-10.8474
▁relation	-10.8475
▁biology	-10.8486
▁physicist	-10.8487
▁Tamil	-10.8499
▁glucose	-10.85
▁Capital	-10.85
▁survey	-10.85
▁specialized	-10.8501
▁Program	-10.8504
metre	-10.851
▁Tai	-10.8511
▁Peru	-10.8511
▁unknown	-10.8511
▁otherwise	-10.8522
▁consumption	-10.8529
▁Wii	-10.8535
▁Executive	-10.854
▁possibly	-10.854
▁nobility	-10.854
▁ritual	-10.854
▁Record	-10.8546
drama	-10.8551
▁assert	-10.8555
▁Brand	-10.8558
▁decide	-10.8562
▁1913	-10.8563
▁fighter	-10.8567
hydr	-10.8568
▁divide	-10.8575
▁racing	-10.8581
▁pump	-10.8593
▁corruption	-10.8595
▁guest	-10.8599
▁geographical	-10.86
▁Isle	-10.8601
▁Eric	-10.8603
▁sovereign	-10.8603
▁invaded	-10.8604
▁Basketball	-10.8606
▁Instead	-10.8606
▁flying	-10.8606
▁wine	-10.8612
▁separation	-10.8619
▁radical	-10.862
▁1909	-10.8624
||||||||||||||	-10.8628
▁Cher	-10.863
▁missile	-10.8632
▁elder	-10.8633
▁Alex	-10.8635
▁Project	-10.8646
▁affiliate	-10.8646
▁celebration	-10.8646
▁reproduction	-10.8646
▁identical	-10.8646
▁slowly	-10.8653
▁announce	-10.8655
▁retain	-10.8659
▁supporters	-10.8661
▁dating	-10.8669
▁Bang	-10.867
▁feeling	-10.8674
▁Similar	-10.8686
▁Globe	-10.8686
▁elite	-10.8687
▁Independence	-10.8699
▁LGBT	-10.8699
▁Honor	-10.87
▁dancer	-10.8706
▁exile	-10.8711
▁emphasis	-10.8712
▁destruction	-10.8726
▁legislation	-10.8726
▁eleven	-10.8726
▁epic	-10.8731
▁faster	-10.8734
▁Jefferson	-10.8739
▁dense	-10.8739
▁Shan	-10.8744
▁egg	-10.8755
box	-10.8757
▁Broadway	-10.8766
▁GDP	-10.8766
▁physician	-10.8779
▁precipitation	-10.8779
▁Helena	-10.878
▁Father	-10.8781
▁edit	-10.8789
▁gay	-10.879
▁easy	-10.8793
▁Crime	-10.8794
▁shop	-10.8798
▁Dark	-10.8803
▁anthropology	-10.8806
▁proposal	-10.8806
▁error	-10.8806
▁Arabia	-10.8815
▁controversial	-10.882
▁Deputy	-10.882
mile	-10.8831
▁recognition	-10.8833
▁volcano	-10.8833
▁sq	-10.8836
▁measurement	-10.8846
▁interior	-10.8847
▁Hawk	-10.8849
▁monarchy	-10.8852
▁nose	-10.886
▁Player	-10.8861
moto	-10.8867
▁planning	-10.8868
▁1916	-10.8868
▁listen	-10.8873
▁refuge	-10.8874
▁effectively	-10.8876
▁Hellenistic	-10.8888
▁praise	-10.889
▁Glen	-10.8894
▁membership	-10.8896
logical	-10.8897
▁icon	-10.89
▁Cooper	-10.8908
▁provision	-10.8909
▁throw	-10.891
▁Web	-10.8911
▁getting	-10.8915
▁penalty	-10.8915
▁Kent	-10.892
▁amino	-10.8924
▁Iron	-10.8925
▁Raleigh	-10.8929
▁Wisconsin	-10.8929
▁Global	-10.8929
▁camera	-10.8941
▁designated	-10.8946
▁Lang	-10.895
stitution	-10.8955
▁survived	-10.8956
appropriate	-10.8956
▁Carnival	-10.8956
▁genocide	-10.8956
▁Malaysia	-10.8956
▁involving	-10.8956
▁assist	-10.8957
▁Magn	-10.8962
▁120	-10.8962
▁Douglas	-10.897
▁Vladimir	-10.897
▁telephone	-10.897
▁terminal	-10.8971
▁shrine	-10.8984
▁Qa	-10.8987
▁discipline	-10.8997
▁stretch	-10.8997
▁DVD	-10.8997
▁inventor	-10.9002
▁cabinet	-10.9011
▁Obama	-10.9011
▁superior	-10.9011
▁1890	-10.902
▁corner	-10.9021
▁Colombia	-10.9025
▁Harvard	-10.9025
▁retained	-10.9029
▁businesses	-10.9035
▁spirit	-10.9038
▁boundaries	-10.9039
▁receiving	-10.9039
▁Villa	-10.9042
▁Gate	-10.9045
▁DJ	-10.9046
▁underground	-10.9052
▁Jordan	-10.9052
▁reject	-10.9054
▁invention	-10.9054
▁dangerous	-10.9054
▁Lion	-10.9061
▁Uruguay	-10.9066
▁strategic	-10.9066
▁rarely	-10.907
▁stroke	-10.908
▁mutual	-10.908
▁vertical	-10.9082
▁expect	-10.9084
▁adapt	-10.9084
load	-10.9085
▁Alexandria	-10.9085
||3||0||	-10.9087
▁interact	-10.9088
▁pack	-10.9094
▁samurai	-10.9094
▁verb	-10.9096
▁criticized	-10.9098
establish	-10.9103
▁youngest	-10.9106
▁captain	-10.9111
▁#1	-10.9123
▁NBA	-10.9127
▁Jun	-10.9138
chester	-10.9147
▁supposed	-10.915
▁remember	-10.9164
▁toxic	-10.9167
face	-10.9172
▁Much	-10.9175
▁grade	-10.9178
▁choose	-10.9179
▁concluded	-10.9189
8||1	-10.919
▁Jacob	-10.9192
▁visitors	-10.9193
▁Allied	-10.9193
▁passes	-10.9194
wise	-10.9201
chlor	-10.9208
▁Season	-10.9211
▁Ashkenazi	-10.922
▁corporation	-10.922
▁quantum	-10.922
▁Gordon	-10.922
▁altitude	-10.9234
▁uniform	-10.9234
▁sperm	-10.924
stream	-10.9243
▁begun	-10.9249
generat	-10.926
▁considerable	-10.926
▁variant	-10.9262
▁Bosnia	-10.9263
▁Tech	-10.927
▁Pradesh	-10.9276
▁mutation	-10.9279
▁pope	-10.9281
▁fungi	-10.9284
▁gases	-10.9285
▁Constantinople	-10.9291
▁trend	-10.9298
▁castle	-10.9301
pire	-10.9302
7||1	-10.9312
▁chair	-10.9315
▁prefer	-10.9316
▁Administration	-10.9319
▁administer	-10.9319
▁merchant	-10.9319
▁representation	-10.9323
▁mainland	-10.9326
▁abandoned	-10.9326
▁fail	-10.9326
▁filament	-10.9333
▁demonstrated	-10.9335
▁tension	-10.9338
▁Highway	-10.9342
▁Unit	-10.9346
▁Margaret	-10.9347
▁morning	-10.9348
▁myth	-10.9348
▁perfect	-10.9356
▁dissolved	-10.9356
▁Flor	-10.9362
▁undergo	-10.9365
▁Prior	-10.9368
▁purchase	-10.9374
▁discussion	-10.9382
▁Additionally	-10.939
▁Morris	-10.9394
▁exhibition	-10.9401
▁description	-10.9402
▁stomach	-10.9405
▁Personal	-10.9405
▁runner	-10.9417
▁Welsh	-10.9419
▁Side	-10.9423
▁Classical	-10.9424
▁Congo	-10.943
▁Kentucky	-10.9433
▁institute	-10.9433
▁heritage	-10.9448
▁Abdul	-10.9448
▁residential	-10.9449
▁1860	-10.9456
▁recognize	-10.9475
▁athletic	-10.9477
▁NFL	-10.9477
▁Children	-10.9478
▁Solar	-10.9482
▁1870	-10.9487
▁Athletic	-10.9491
▁peninsula	-10.9491
▁surviving	-10.9491
▁Rhode	-10.9492
6,000	-10.9504
▁Ivan	-10.9505
niversit	-10.9505
▁Agency	-10.9506
case	-10.9516
▁Secret	-10.9516
▁Bruce	-10.9519
▁technologies	-10.952
▁Studies	-10.952
▁humid	-10.9525
▁1907	-10.9526
▁Disc	-10.9529
▁cup	-10.953
▁Wind	-10.953
▁Ryan	-10.9532
▁Around	-10.9533
▁advocate	-10.9534
▁affirm	-10.9534
▁kilometers	-10.9534
▁Danish	-10.9542
cir	-10.9546
ophil	-10.9548
▁coverage	-10.9551
▁fellow	-10.9553
▁parish	-10.9553
▁Historical	-10.9559
▁rib	-10.9563
▁Munich	-10.9564
▁bacterial	-10.9565
▁Syn	-10.9578
▁destination	-10.9578
▁graduating	-10.9578
▁milk	-10.9579
▁drain	-10.9579
flow	-10.9584
▁Cork	-10.9585
▁Saturday	-10.9593
▁photosynthesis	-10.9593
900	-10.9593
▁suffering	-10.9606
▁rainfall	-10.9608
▁succession	-10.9622
▁Daily	-10.9622
▁senator	-10.9623
▁Movie	-10.9623
▁losing	-10.9629
▁extension	-10.9637
▁perceived	-10.9637
▁Bow	-10.9639
▁tourism	-10.9647
▁Norwegian	-10.9651
▁circle	-10.9651
▁compression	-10.9655
▁Language	-10.9666
▁Norfolk	-10.9666
▁buried	-10.9666
▁Gallery	-10.9667
▁purchased	-10.9668
▁Berg	-10.9668
▁march	-10.9676
▁Beau	-10.9682
disc	-10.9685
▁Journal	-10.9696
▁breath	-10.9696
▁CEO	-10.97
▁perception	-10.97
▁demonstration	-10.971
▁expedition	-10.971
▁reducing	-10.9711
▁wider	-10.9716
▁Chamber	-10.9717
▁efficiency	-10.9725
▁encounter	-10.9725
▁assumed	-10.9725
▁sphere	-10.9725
▁Monte	-10.9726
▁entry	-10.9726
minute	-10.9731
▁comparison	-10.974
hō	-10.9743
▁Zu	-10.9748
="6"|	-10.9755
▁Chairman	-10.9755
▁hypo	-10.9756
▁Sichuan	-10.977
▁|2004||	-10.977
▁novelist	-10.9783
▁tennis	-10.9785
▁mainstream	-10.9787
▁scheduled	-10.979
▁linguistic	-10.9793
▁Revolutionary	-10.9797
▁educated	-10.9799
▁sitcom	-10.9799
▁Oscar	-10.9801
vert	-10.9807
▁hunt	-10.9809
▁Imp	-10.9811
▁rocket	-10.9821
▁resolution	-10.9829
▁Judaism	-10.9829
▁childhood	-10.9832
▁Week	-10.9834
▁Brook	-10.9837
▁Mercury	-10.9844
▁Plain	-10.9849
▁encouraged	-10.9857
▁Adventure	-10.9859
▁Esp	-10.9861
▁varies	-10.9867
▁painted	-10.9868
▁abuse	-10.987
▁Political	-10.9874
▁Burg	-10.9875
▁requirements	-10.9878
▁Hanover	-10.988
▁Short	-10.9881
▁eighth	-10.9884
▁congressional	-10.9889
▁somewhat	-10.9889
▁decay	-10.989
▁RNA	-10.9901
▁logic	-10.9902
▁participate	-10.9904
▁absolute	-10.9904
▁Hamilton	-10.9904
▁Ibn	-10.9906
▁Kelly	-10.9922
▁straight	-10.9935
▁sediment	-10.9935
▁Pun	-10.9936
▁Wien	-10.9947
▁democracy	-10.995
▁Therefore	-10.995
logist	-10.9951
▁1,000	-10.9965
▁Athanasius	-10.9965
▁gravity	-10.9965
▁ordinary	-10.9965
▁Doctor	-10.997
▁researchers	-10.9971
▁evolutionary	-10.9973
▁Defense	-10.998
▁electromagnetic	-10.998
▁jump	-10.9986
▁Hugh	-10.9991
▁USSR	-10.9995
▁Ethiopia	-11.001
▁pollution	-11.001
▁approval	-11.001
▁Baltic	-11.002
▁Charlotte	-11.0026
▁Atlanta	-11.0026
▁|2005||	-11.0026
▁venue	-11.0028
▁teach	-11.0032
▁Silver	-11.0032
amine	-11.0034
▁Burma	-11.0055
▁Benjamin	-11.0056
▁promise	-11.0066
▁Clinton	-11.0072
▁Monica	-11.0076
▁objective	-11.0076
▁treaties	-11.0079
punk	-11.008
▁predominant	-11.0087
▁controversy	-11.0087
▁prefecture	-11.0087
▁Animal	-11.0087
▁loyal	-11.0087
▁Nicholas	-11.0102
▁Thailand	-11.0102
▁Born	-11.0106
▁artistic	-11.0106
▁scar	-11.0106
human	-11.0107
chemical	-11.0122
▁truth	-11.0134
▁lyrics	-11.0148
▁assent	-11.015
▁structural	-11.0164
▁Digital	-11.0164
▁conversion	-11.0164
▁kidney	-11.0164
▁|2002||	-11.0164
▁Iceland	-11.0168
▁Yama	-11.0168
selling	-11.0168
▁rising	-11.017
▁Burn	-11.0176
▁combine	-11.018
▁ABC	-11.018
▁Nord	-11.0187
▁assembly	-11.0195
▁|2006||	-11.0195
▁rice	-11.0196
▁achievement	-11.0202
▁Lil	-11.0207
▁holiday	-11.021
▁shut	-11.0221
▁Soccer	-11.0226
▁Saxony	-11.0226
▁Athens	-11.0227
▁generated	-11.0227
▁personnel	-11.0233
▁stick	-11.0236
▁spectrum	-11.0242
▁gross	-11.0242
▁incorporat	-11.0245
▁check	-11.0245
▁nothing	-11.0245
▁Historic	-11.0247
▁undergraduate	-11.0257
▁Anderson	-11.0257
▁zero	-11.0258
First	-11.0263
▁diplomat	-11.0264
6||1	-11.0265
▁remark	-11.0268
rank	-11.0268
▁coalition	-11.0273
▁Digimon	-11.0288
▁concentrated	-11.0288
▁arrival	-11.0288
▁discrimination	-11.029
ould	-11.0304
▁Simpson	-11.0304
▁embryo	-11.0304
abad	-11.031
▁Ent	-11.031
▁injured	-11.032
▁consume	-11.0321
Regional	-11.0321
▁accompanied	-11.0335
▁temporary	-11.0335
▁Hudson	-11.0336
▁Reagan	-11.0336
▁tea	-11.0344
▁sac	-11.0345
▁cease	-11.035
▁homosexual	-11.0351
ör	-11.0357
▁retreat	-11.0368
▁progressive	-11.0375
▁Ecuador	-11.0383
▁Macintosh	-11.0383
▁procedure	-11.0383
▁Thuringia	-11.0383
▁threatened	-11.0383
free	-11.0383
▁narrat	-11.0384
▁worn	-11.0385
▁terr	-11.0388
▁blow	-11.0393
▁variable	-11.0399
▁|2003||	-11.0399
▁sodium	-11.0415
▁steam	-11.0415
▁preferred	-11.0416
▁Bernard	-11.0419
▁Storm	-11.0423
▁cuisine	-11.043
▁chamber	-11.0433
▁1915	-11.0441
▁exposed	-11.0446
▁Rico	-11.0446
▁erupt	-11.0447
▁Guam	-11.0456
▁honour	-11.0462
▁twin	-11.0464
▁Formula	-11.0478
▁encode	-11.048
mouth	-11.0487
▁landscape	-11.0494
election	-11.0497
▁uncle	-11.0525
▁overseas	-11.0526
▁Airlines	-11.0526
▁minimum	-11.0542
▁finance	-11.0542
▁manner	-11.055
▁tiny	-11.055
5||1	-11.0554
▁respiratory	-11.0558
▁mining	-11.0562
▁tallest	-11.0563
▁Somalia	-11.0565
▁wish	-11.0571
▁creator	-11.0573
▁monitor	-11.0574
▁isolated	-11.0575
▁Freedom	-11.0576
▁Stalin	-11.0579
▁Popper	-11.0579
▁raise	-11.0582
▁Baltimore	-11.059
▁UNESCO	-11.059
▁crowd	-11.0591
▁dimension	-11.0594
▁diagnosed	-11.0607
▁Legend	-11.0607
▁weigh	-11.0618
▁Pittsburgh	-11.0623
▁Venezuela	-11.0623
▁Rangers	-11.0625
▁improvement	-11.0637
▁invade	-11.0637
▁disappear	-11.0639
▁disrupt	-11.0639
▁innovation	-11.064
▁Interstate	-11.0641
▁banned	-11.0641
▁Cook	-11.0644
▁municipal	-11.0649
trans	-11.0654
▁offspring	-11.0655
▁Devon	-11.0655
▁particle	-11.0661
▁Emil	-11.0664
depend	-11.0665
▁sufficient	-11.0672
▁assigned	-11.0672
▁anything	-11.0673
▁Trump	-11.0677
▁kW	-11.0679
New	-11.0683
ün	-11.0688
▁diameter	-11.0704
▁rescue	-11.0705
▁Henri	-11.0714
–16	-11.0715
▁legislative	-11.072
▁goddess	-11.0721
▁Hotel	-11.0728
▁frequent	-11.0733
migrated	-11.0735
▁talent	-11.0738
://	-11.0738
▁philosophical	-11.0753
▁Dakota	-11.0753
▁Somerset	-11.0753
▁arranged	-11.0753
▁presidency	-11.0754
▁climb	-11.0754
▁ranging	-11.0757
||||||	-11.0766
▁adjacent	-11.077
▁Through	-11.0785
▁enhance	-11.0786
▁creature	-11.0787
▁commentator	-11.0798
▁Usually	-11.0803
▁chronic	-11.0803
▁Friend	-11.0804
▁Background	-11.0819
▁railroad	-11.0819
▁pianist	-11.0819
▁theoretical	-11.0819
▁thirteen	-11.0836
▁Madison	-11.0836
▁|2001||	-11.0836
▁emergency	-11.0836
▁Leonard	-11.0839
▁Kashmir	-11.0852
▁currency	-11.0852
▁Independent	-11.0852
▁voting	-11.0857
▁contribute	-11.086
▁responsibility	-11.0869
▁Desert	-11.0869
▁poison	-11.0869
space	-11.0874
▁Officer	-11.0874
▁1861	-11.0879
▁catch	-11.0881
▁Ambassador	-11.0885
▁pronunciation	-11.0885
▁Species	-11.0885
▁easier	-11.0885
▁asphalt	-11.0885
▁attributed	-11.0885
▁Cancer	-11.0889
▁diplomatic	-11.0895
▁prayer	-11.0902
▁Article	-11.0902
▁communist	-11.0902
▁sharp	-11.0903
▁statue	-11.0907
▁1901	-11.0909
▁100,000	-11.0913
▁hardware	-11.092
▁ibn	-11.092
▁basin	-11.0921
▁Anglican	-11.0935
▁obligat	-11.0936
▁psychology	-11.0936
▁Urban	-11.0937
▁Rub	-11.0937
▁encourage	-11.0938
▁phil	-11.0941
▁manuscript	-11.0952
▁intention	-11.0954
–15	-11.096
▁curve	-11.0968
▁Oregon	-11.0969
▁proceed	-11.0969
▁interface	-11.097
▁Lanka	-11.0974
winning	-11.098
▁Amsterdam	-11.0986
▁Belarus	-11.0986
▁Control	-11.0986
▁assistant	-11.0993
▁extract	-11.0996
▁mention	-11.0997
▁smooth	-11.1002
▁Grant	-11.1004
▁consistent	-11.1014
▁carries	-11.1015
▁tape	-11.103
▁explorer	-11.1043
▁unusual	-11.1047
▁chose	-11.105
▁Utrecht	-11.1053
▁Baker	-11.1057
modern	-11.1066
psych	-11.1068
▁Moore	-11.1071
▁fame	-11.1075
▁Village	-11.1086
▁silent	-11.1087
▁Type	-11.1095
–17	-11.1096
▁Further	-11.1104
▁suppress	-11.1104
▁Phillip	-11.1105
▁Forbes	-11.1106
high	-11.1107
▁occasionally	-11.1107
▁taste	-11.1108
▁Kevin	-11.1109
▁MTV	-11.1118
▁Cypriot	-11.1121
▁witness	-11.1121
▁Honour	-11.1121
script	-11.1128
▁magic	-11.1129
▁artillery	-11.1138
▁sacrifice	-11.1138
▁restored	-11.1138
osphere	-11.1139
▁birthday	-11.1143
▁Food	-11.1148
formerly	-11.1152
▁Cretaceous	-11.1155
▁Hampshire	-11.1155
▁conservation	-11.1155
▁complain	-11.1155
▁Saturn	-11.1159
rink	-11.117
▁Support	-11.1172
▁prompt	-11.1174
eastern	-11.1179
▁unsuccessful	-11.1189
▁false	-11.1189
▁Jimmy	-11.1191
▁Costa	-11.1192
▁distinctive	-11.1201
ienne	-11.1203
▁gymnast	-11.1206
▁immediate	-11.1221
▁cluster	-11.1224
▁crust	-11.1224
▁NES	-11.1224
▁reproduce	-11.1235
▁pursue	-11.1241
▁alleged	-11.1241
▁Small	-11.1245
▁Strasbourg	-11.1258
▁hyper	-11.1258
▁suicide	-11.1259
▁download	-11.126
▁hearing	-11.1261
▁weapon	-11.1267
western	-11.1267
▁Creek	-11.1278
▁trap	-11.1285
▁frequencies	-11.1293
▁squad	-11.1293
▁Discography	-11.1293
▁Jupiter	-11.131
▁prohibit	-11.131
▁Sudan	-11.1311
▁explore	-11.1321
▁predecessor	-11.1327
exclud	-11.134
9||1	-11.1343
▁abolished	-11.1345
▁cyclone	-11.1345
official	-11.1361
▁Cleveland	-11.1362
▁Communication	-11.1362
▁violin	-11.1362
▁initiative	-11.1362
▁DST	-11.1363
▁infrastructure	-11.1379
▁margin	-11.138
friend	-11.1383
▁Kiev	-11.1392
Football	-11.1396
▁Lieutenant	-11.1397
▁depression	-11.1397
▁|2000||	-11.1397
▁appoint	-11.1412
▁generate	-11.1414
▁integrated	-11.1414
▁varieties	-11.1414
▁Abraham	-11.1414
▁Kanye	-11.1417
▁convicted	-11.1432
▁borrow	-11.1432
▁controller	-11.1432
▁Albania	-11.1433
▁Florence	-11.1434
▁Feynman	-11.145
▁supplies	-11.145
▁nutrition	-11.1467
▁competing	-11.1467
▁snake	-11.1467
▁domain	-11.1468
▁shopping	-11.1468
bitumen	-11.1468
▁Description	-11.1473
▁Speaker	-11.1485
▁referendum	-11.1485
▁retirement	-11.1485
▁construct	-11.1487
▁citizen	-11.1501
▁Friday	-11.1505
▁División	-11.152
▁consecutive	-11.152
▁offensive	-11.152
▁boundary	-11.152
Arab	-11.1524
–14	-11.1525
▁possession	-11.1533
▁disagree	-11.1538
▁Buenos	-11.1538
▁Junior	-11.1538
▁Computer	-11.1538
▁Representative	-11.1539
7,000	-11.1546
▁Finnish	-11.1556
▁encoding	-11.1556
▁literally	-11.1556
▁shelter	-11.1556
NHL	-11.1556
French	-11.1556
▁justice	-11.1568
continent	-11.1573
▁facility	-11.1573
▁situated	-11.1573
▁Student	-11.1574
▁judicial	-11.1591
▁communicate	-11.1591
▁populated	-11.1591
▁Slovak	-11.1591
▁wrong	-11.1591
▁Universe	-11.1593
▁neither	-11.1609
▁allele	-11.1623
▁enforce	-11.1623
▁Princip	-11.1627
▁moderate	-11.1629
bridge	-11.1633
▁Aristotle	-11.1645
▁opportunity	-11.1645
▁provincial	-11.1645
▁vegetable	-11.1645
▁rebellion	-11.1645
▁Sicily	-11.1645
▁acres	-11.1646
▁|2001/02||	-11.1663
▁explanation	-11.1663
▁Express	-11.1666
▁Orange	-11.1676
aceae	-11.1678
▁sculpture	-11.1681
▁condemn	-11.1681
▁essay	-11.1681
▁|2007||	-11.1681
▁teeth	-11.1681
▁Birth	-11.1681
sometimes	-11.1683
▁ride	-11.1685
▁Picture	-11.1687
▁shipping	-11.1701
▁Blood	-11.1704
▁loop	-11.1708
▁fled	-11.171
▁assess	-11.1715
▁modified	-11.1717
▁partially	-11.1717
||4||0||	-11.1719
▁1906	-11.1724
▁Model	-11.1729
▁astronomer	-11.1735
▁comprehensive	-11.1735
▁breast	-11.1735
▁soccer	-11.1735
▁Traditional	-11.1735
▁Queensland	-11.1736
▁citizenship	-11.1737
▁Venice	-11.1739
▁constituency	-11.1753
▁abstract	-11.1753
▁Olympia	-11.1753
▁Johnny	-11.1758
▁cheap	-11.1762
▁Environment	-11.1771
▁complications	-11.1771
▁intestine	-11.1771
▁|2000/01||	-11.1771
▁Spirit	-11.1771
▁usual	-11.1788
▁adjust	-11.179
▁congregation	-11.179
▁swimming	-11.179
▁dictator	-11.179
▁Celtic	-11.179
▁resemble	-11.1791
▁familiar	-11.1808
▁http	-11.1826
▁chapter	-11.1826
▁Alexandr	-11.1838
▁Witnesses	-11.1844
plicat	-11.1845
▁Pierre	-11.1863
quality	-11.1866
▁assistance	-11.1866
▁pneumonia	-11.1881
▁Speed	-11.1883
▁Archive	-11.1891
static	-11.1899
▁faculty	-11.1899
▁Continental	-11.1918
▁guarantee	-11.1918
▁Hitler	-11.1918
▁worst	-11.1918
European	-11.1922
▁1905	-11.1925
▁Salzburg	-11.1936
▁beautiful	-11.1936
▁orange	-11.1944
▁mild	-11.1947
▁|2002/03||	-11.1955
▁|1999/00||	-11.1955
▁Design	-11.1956
▁Jehovah	-11.1973
▁reputation	-11.1973
▁trigger	-11.1973
▁digestive	-11.198
▁parliamentary	-11.1982
▁behaviour	-11.1992
▁profile	-11.1992
▁Furthermore	-11.1992
▁elsewhere	-11.1992
▁Wayne	-11.2007
Figure	-11.2015
▁rational	-11.2018
▁gift	-11.203
▁Croatia	-11.2034
▁Morgan	-11.2041
usually	-11.2041
▁filter	-11.2048
▁varied	-11.2048
▁ongoing	-11.2051
▁package	-11.2053
▁Dave	-11.2054
▁Legislative	-11.2066
▁renewable	-11.2066
▁Dallas	-11.2067
▁revolt	-11.2067
▁Range	-11.2068
▁1903	-11.2073
third	-11.2073
timate	-11.2077
▁Industrial	-11.2085
▁Orleans	-11.2085
▁autonomy	-11.2085
▁perspective	-11.2085
▁Rapid	-11.2085
▁compact	-11.2089
▁adhere	-11.209
▁Lithuania	-11.2105
▁trust	-11.2106
solv	-11.2107
▁duties	-11.2108
▁leaf	-11.2108
cultural	-11.211
▁Chihuahua	-11.2123
▁phenomenon	-11.2123
▁reproductive	-11.2123
▁suspect	-11.2123
▁peasant	-11.2123
▁pupil	-11.2123
▁assets	-11.2132
▁Freemasonry	-11.2141
▁mirror	-11.2141
▁decree	-11.2142
▁Utah	-11.2142
often	-11.2145
▁anthem	-11.2148
▁revolutionary	-11.215
▁Turner	-11.2151
NY	-11.2157
▁immigration	-11.216
▁siege	-11.216
▁Austin	-11.2161
▁plot	-11.2165
▁loose	-11.2166
▁consolidat	-11.2179
▁magnitude	-11.2179
▁lecture	-11.2179
foot	-11.218
▁Besides	-11.218
▁zoo	-11.2191
▁Arkansas	-11.2198
▁tuberculosis	-11.2198
▁tunnel	-11.2198
▁ninth	-11.2198
▁apartment	-11.2199
▁Notable	-11.2227
▁Intelligence	-11.2236
▁NATO	-11.2236
▁defensive	-11.2236
▁calculate	-11.2236
▁lens	-11.2249
▁Birmingham	-11.2255
▁psychological	-11.2255
▁|1998/99||	-11.2274
▁invited	-11.2275
▁Multi	-11.2279
▁replacement	-11.2285
▁headquartered	-11.2293
▁violation	-11.2293
▁Information	-11.2293
▁CBC	-11.2294
▁Stock	-11.2301
▁Roosevelt	-11.2313
▁privilege	-11.2313
▁Writers	-11.2313
▁Abbey	-11.2313
▁assault	-11.2313
▁truck	-11.2316
▁sovereignty	-11.2316
▁Arbor	-11.2319
▁midfielder	-11.2332
▁sudden	-11.2332
▁Everton	-11.2332
▁deputy	-11.2332
▁Alliance	-11.2332
▁Orchestra	-11.2351
▁Character	-11.2351
▁pigment	-11.2351
▁remote	-11.2351
▁Electronic	-11.2351
▁warfare	-11.237
General	-11.2378
▁yield	-11.239
▁Jamaica	-11.239
▁intense	-11.2391
▁bigger	-11.2396
▁derive	-11.24
▁entities	-11.2409
▁entity	-11.2411
▁rotation	-11.2413
▁inherited	-11.2428
▁occupy	-11.2428
▁Nelson	-11.2428
▁pronounced	-11.2428
▁dissolve	-11.2436
Premier	-11.2437
▁referee	-11.2445
▁carbohydrate	-11.2448
course	-11.2448
▁persist	-11.2454
wald	-11.2462
▁Confederation	-11.2467
▁accomplish	-11.2467
▁Saudi	-11.2467
▁flame	-11.2474
▁Watch	-11.2477
▁emission	-11.248
▁southeastern	-11.2488
▁|1999||	-11.2496
sumption	-11.2503
▁1904	-11.2514
▁celebrate	-11.2515
▁Authority	-11.2526
▁fifteen	-11.2526
▁ignore	-11.2527
▁servant	-11.2527
▁trail	-11.2527
▁|2003/04||	-11.2545
▁competitive	-11.2545
▁investigate	-11.2546
▁relief	-11.2565
▁merely	-11.2565
▁struck	-11.2567
▁Virgil	-11.2585
▁landmark	-11.2593
▁Arnold	-11.2604
▁Arctic	-11.2604
▁occurring	-11.2609
▁cellular	-11.2612
uku	-11.2612
You	-11.2616
▁journey	-11.2624
▁Nevada	-11.2624
▁busiest	-11.2624
▁Jerry	-11.2624
▁queen	-11.2645
▁Harold	-11.2648
▁enforcement	-11.2649
▁Tiger	-11.2658
▁simultaneous	-11.2664
▁anniversary	-11.2664
▁vapor	-11.2664
closure	-11.2664
▁Crusade	-11.2664
▁transmitter	-11.2671
▁Found	-11.2673
▁Route	-11.268
▁educator	-11.2684
▁regulator	-11.2684
▁resort	-11.2684
▁everything	-11.2685
▁Local	-11.2695
▁Columbus	-11.2704
▁conclusion	-11.2704
▁Management	-11.2704
▁fragment	-11.2704
▁resident	-11.2706
▁subsidiary	-11.2724
▁Mughal	-11.2724
▁geographic	-11.2733
▁Montevideo	-11.2764
▁animation	-11.2764
▁oxidation	-11.2784
▁Osaka	-11.2784
▁algae	-11.2784
▁hypothesis	-11.2824
▁advisor	-11.2824
▁exploit	-11.2824
▁Manipur	-11.2824
▁vinyl	-11.2844
▁isotope	-11.2844
▁lodge	-11.2844
▁serial	-11.2845
▁|1998||	-11.2847
▁Calvin	-11.2849
▁Large	-11.2858
season	-11.2859
▁protocol	-11.2864
||0||2||0	-11.2877
scribed	-11.288
▁|2004/05||	-11.2885
▁casualties	-11.2885
▁rugby	-11.2885
▁funeral	-11.2885
▁drummer	-11.2888
▁plasma	-11.2906
▁ultra	-11.2906
▁Antarctic	-11.2908
▁neurons	-11.2908
8,000	-11.2918
▁democratic	-11.2925
▁volunteer	-11.2925
▁Gregory	-11.2925
▁superhero	-11.2925
▁subcontinent	-11.2927
▁chip	-11.2939
white	-11.2939
▁danger	-11.2943
▁Friedrich	-11.2946
▁Robinson	-11.2946
▁battery	-11.2946
▁Herbert	-11.2952
▁Diamond	-11.2966
▁Phoenix	-11.2966
▁restrictions	-11.2966
cephal	-11.2968
▁protons	-11.297
about	-11.2971
▁necessarily	-11.2987
▁reinforce	-11.2987
▁biographical	-11.2987
▁denied	-11.2988
▁Harbor	-11.2992
▁Salvador	-11.3007
▁Wilhelm	-11.3007
▁mechanics	-11.3007
borough	-11.3023
▁Twilight	-11.3028
▁helicopter	-11.3028
▁counterpart	-11.303
owski	-11.3033
▁roof	-11.3034
▁prima	-11.3041
▁Unicode	-11.3048
stadt	-11.3056
▁Magazine	-11.3069
▁militia	-11.3069
▁imposed	-11.3069
▁Beginning	-11.309
▁Confederate	-11.309
▁advertise	-11.309
▁Together	-11.309
▁soldier	-11.3091
▁northeastern	-11.3092
▁sixteen	-11.3096
▁saint	-11.3098
sensitive	-11.3111
▁|1997/98||	-11.3111
▁advice	-11.3111
▁martial	-11.3111
▁fusion	-11.3111
,000,000	-11.3128
▁synthesize	-11.3131
www	-11.3132
▁partnership	-11.3135
▁replica	-11.314
▁supplement	-11.3152
▁understood	-11.3152
▁rpm	-11.3152
▁Barbara	-11.3153
▁Popular	-11.3154
▁informal	-11.3164
▁appointment	-11.3166
▁sweet	-11.3174
piracy	-11.3174
▁Prague	-11.3176
world	-11.3189
▁participant	-11.3194
▁Jurassic	-11.3194
▁culminat	-11.3198
▁territorial	-11.3215
▁attorney	-11.3215
▁|}	-11.3216
▁saving	-11.3225
▁ISO	-11.3236
▁barrier	-11.3236
▁Direct	-11.3246
▁Photo	-11.3255
▁explicit	-11.3257
▁chicken	-11.3257
▁consonant	-11.3257
▁Orient	-11.3257
▁valid	-11.3258
▁cousin	-11.326
▁Algeria	-11.3261
▁horizontal	-11.3278
▁Contest	-11.3279
▁sharing	-11.3283
▁electoral	-11.3299
▁spelled	-11.3299
▁Machine	-11.3299
▁Batman	-11.33
▁organize	-11.3302
▁Singh	-11.332
▁Cabinet	-11.332
▁Rajasthan	-11.332
▁Stewart	-11.332
▁missing	-11.3328
pronounce	-11.3341
▁Jonathan	-11.3342
▁systematic	-11.3349
child	-11.336
founder	-11.3361
XX	-11.3361
▁administrator	-11.3363
▁anthropologist	-11.3363
▁corporate	-11.3363
▁poverty	-11.3363
▁terrorist	-11.3363
▁infectious	-11.3363
▁|2008||	-11.3363
▁Windsor	-11.3364
▁lymph	-11.3364
▁depth	-11.3364
▁Dragon	-11.3366
receptor	-11.3368
abbreviated	-11.3384
▁Ferdinand	-11.3384
▁trouble	-11.3384
▁junction	-11.3384
▁Vatican	-11.3384
▁Derby	-11.3384
▁Aboriginal	-11.3385
▁mammal	-11.339
▁|1997||	-11.3401
biotic	-11.3401
▁browser	-11.3406
▁vowel	-11.3406
▁clinic	-11.3415
▁Buckingham	-11.3427
▁Tropical	-11.3427
▁evacuat	-11.3427
▁soundtrack	-11.3427
▁Slavs	-11.3429
▁northwestern	-11.3429
▁nitr	-11.3448
▁Umayyad	-11.3448
▁Vancouver	-11.3448
▁Benedict	-11.3448
▁proclaimed	-11.3448
▁kinetic	-11.3449
▁Gabriel	-11.3449
compatible	-11.3449
hawk	-11.3456
▁Cultural	-11.347
▁Tajikistan	-11.347
▁Burmese	-11.347
▁NASA	-11.347
▁surgery	-11.347
▁Vincent	-11.347
▁warrior	-11.347
▁Period	-11.347
▁asthma	-11.348
▁infrared	-11.3492
▁qualify	-11.3492
▁revival	-11.3492
▁Singles	-11.3495
▁Thunder	-11.3495
▁Indies	-11.3498
▁statistical	-11.3513
▁operator	-11.3519
witch	-11.3521
▁finger	-11.3523
▁certified	-11.3535
▁playwright	-11.3535
▁enemies	-11.3535
▁Downtown	-11.3536
▁ownership	-11.3539
▁stood	-11.3539
▁Cycl	-11.3553
▁Zhejiang	-11.3556
▁impossible	-11.3556
▁vitamin	-11.3556
▁Oliver	-11.3557
▁optical	-11.3559
▁1.5	-11.3574
oriented	-11.3579
▁navy	-11.358
▁whale	-11.3581
▁£1	-11.3583
▁entrepreneur	-11.36
▁Jennifer	-11.36
▁Testament	-11.36
▁thirty	-11.36
▁strain	-11.3601
▁punishment	-11.3622
▁Eagle	-11.3622
▁associate	-11.3635
▁examine	-11.3646
▁Edinburgh	-11.3666
▁Isabel	-11.3666
▁Susan	-11.3672
▁circum	-11.3688
▁Archbishop	-11.371
▁Nevertheless	-11.371
▁abbreviation	-11.371
▁volcanic	-11.371
▁Destiny	-11.371
▁Often	-11.3714
="7"|	-11.3732
▁Palestine	-11.3754
▁algorithm	-11.3754
▁swimmer	-11.3754
▁regain	-11.3754
▁laboratory	-11.3755
▁Throughout	-11.3755
▁Medieval	-11.3776
▁continuing	-11.3776
▁entrance	-11.3776
▁uprising	-11.3776
▁flour	-11.3776
▁massacre	-11.3776
▁rabbi	-11.3778
▁Thos	-11.3793
▁automobile	-11.3798
▁Lebanon	-11.3798
▁Actress	-11.3799
▁sacred	-11.38
▁complement	-11.3801
▁Nebraska	-11.3821
▁replacing	-11.3821
▁suffer	-11.3847
▁Hydro	-11.3849
▁Different	-11.3865
▁explosion	-11.3865
▁opportunities	-11.3865
▁possibility	-11.3865
▁Dublin	-11.3865
▁Google	-11.3865
▁schedule	-11.3879
▁emergenc	-11.3885
▁suspended	-11.3888
▁absence	-11.3888
▁driving	-11.3888
▁feathers	-11.3888
▁client	-11.3888
▁Fleet	-11.3888
▁wildlife	-11.3888
▁Marshal	-11.3895
▁circumstances	-11.391
▁vaccine	-11.391
▁synthetic	-11.391
▁Draft	-11.391
▁abroad	-11.391
▁larva	-11.3911
▁Literature	-11.3933
▁statute	-11.3933
▁nominee	-11.3933
▁Thames	-11.3933
▁Architecture	-11.3934
▁Gregorian	-11.3955
▁Oblast	-11.3955
▁decoration	-11.3955
▁Persia	-11.3971
▁Santiago	-11.3978
▁Franz	-11.3978
▁injury	-11.3979
▁Gilbert	-11.3979
founded	-11.398
▁Raymond	-11.4001
▁discontinu	-11.4001
▁teenager	-11.4001
▁volleyball	-11.4001
▁Spectre	-11.4001
▁Manuel	-11.4001
▁shock	-11.4003
▁diabetes	-11.4023
▁ingredient	-11.4023
▁geologic	-11.4025
,800	-11.4028
▁cavalry	-11.4046
▁succeed	-11.4048
▁Anatolia	-11.4069
▁clergy	-11.4069
▁coordinate	-11.4069
▁(2006)	-11.4069
▁Drama	-11.4092
▁survival	-11.4092
▁Capitol	-11.4092
▁shortened	-11.4092
▁shark	-11.4095
▁Indigenous	-11.4115
▁chloride	-11.4115
▁conquer	-11.4118
▁Palestinian	-11.4138
▁Eurovision	-11.4139
▁southwestern	-11.414
current	-11.4143
▁Culture	-11.4161
▁romance	-11.4161
▁Hindi	-11.4161
▁Wallace	-11.4162
▁Yellow	-11.4163
▁profession	-11.4166
▁presid	-11.4179
▁technological	-11.4207
▁Declaration	-11.4207
▁equator	-11.4207
▁tornado	-11.4207
▁Kerala	-11.4207
▁insurance	-11.4207
▁Borough	-11.421
▁Lancashire	-11.423
▁autonomous	-11.423
▁calcium	-11.423
▁drought	-11.423
▁Spider	-11.423
▁airplane	-11.4253
▁commerce	-11.4253
▁amateur	-11.4254
▁allied	-11.4262
▁latitude	-11.4277
▁|1996/97||	-11.4277
▁Catherine	-11.4277
▁(2008)	-11.4277
credit	-11.4277
▁Alsace	-11.4277
▁repair	-11.428
▁reveal	-11.4281
▁attach	-11.4282
▁typ	-11.4283
▁Attorney	-11.43
government	-11.4305
▁Jacques	-11.4323
▁infringement	-11.4323
▁Engineering	-11.4324
▁anchor	-11.4327
▁anime	-11.4329
▁introduce	-11.434
▁arrive	-11.434
▁Lloyd	-11.4347
▁Avicenna	-11.4347
▁veteran	-11.4347
▁removal	-11.4347
▁mosque	-11.4348
▁accus	-11.4356
▁Engine	-11.437
▁facilitate	-11.437
▁Beatles	-11.4371
▁Sumerian	-11.4371
▁transistor	-11.4371
▁chemist	-11.4389
||10||	-11.439
▁|2005/06||	-11.4394
▁lipid	-11.4395
science	-11.4403
▁prosecut	-11.4418
▁precise	-11.4418
▁charity	-11.4418
▁psycho	-11.4421
▁quantity	-11.4441
▁annexed	-11.4441
▁Julius	-11.4441
▁Latvia	-11.4441
▁telescope	-11.4442
▁cited	-11.4443
▁circulation	-11.4465
▁elaborate	-11.4465
▁surprise	-11.4465
▁repeat	-11.4474
▁Broadcasting	-11.4489
▁Holocaust	-11.4489
▁Luxembourg	-11.4489
▁Symphony	-11.4489
▁Underground	-11.4489
▁phenomena	-11.4489
▁subtropical	-11.4489
▁abbey	-11.4489
▁Industry	-11.4513
▁examination	-11.4513
▁recruit	-11.4513
▁amendment	-11.4513
▁Gospel	-11.4513
writer	-11.4518
▁Berkeley	-11.4537
▁theologian	-11.4537
▁smoke	-11.4539
▁Luftwaffe	-11.4561
▁preparation	-11.4561
▁(2005)	-11.4561
▁rifle	-11.4561
▁Next	-11.4562
▁Leopold	-11.4585
▁cartridge	-11.4585
▁expense	-11.4586
▁outdoor	-11.4609
written	-11.4617
▁Babylon	-11.4633
▁migrant	-11.4633
▁Ernest	-11.4633
▁Paramount	-11.4634
▁|1996||	-11.4651
▁Physics	-11.4657
▁astronomy	-11.4657
▁coffee	-11.4657
▁grammar	-11.4657
▁Petersburg	-11.4657
▁1872	-11.4658
▁Pedro	-11.4658
▁grid	-11.4675
▁millennium	-11.4682
▁hybrid	-11.4706
▁Statistics	-11.4706
▁diarrhea	-11.4706
▁Duchess	-11.4706
▁blend	-11.4709
▁migrate	-11.471
AIDS	-11.473
▁outcome	-11.4732
▁constituent	-11.4755
▁admitted	-11.4755
▁Ridge	-11.4755
Single	-11.4761
▁Thompson	-11.4779
▁advertising	-11.4779
▁endangered	-11.4779
▁Animation	-11.4779
▁confused	-11.4779
▁Keith	-11.478
▁tune	-11.4785
▁Scientific	-11.4804
▁literacy	-11.4804
▁respiration	-11.4804
▁vocabulary	-11.4804
▁Shakespeare	-11.4804
▁Maurice	-11.4804
▁asteroid	-11.4804
▁Barack	-11.4804
▁trophy	-11.4805
▁grandfather	-11.4828
▁incandescent	-11.4828
▁locomotive	-11.4828
▁terrestrial	-11.4828
▁atmospheric	-11.4853
▁|1995/96||	-11.4878
▁Ralph	-11.4878
▁LaserDisc	-11.4903
▁identification	-11.4903
▁stereo	-11.4905
▁bankrupt	-11.4928
▁Isaac	-11.4928
▁Bryan	-11.4939
▁(2007)	-11.4953
▁Female	-11.4953
▁shallow	-11.4954
Meanwhile	-11.4977
▁velocity	-11.4977
▁victories	-11.4977
▁psychologist	-11.4978
school	-11.4991
▁differentiate	-11.5001
▁Eventually	-11.5003
▁capabilities	-11.5003
▁Slovenia	-11.5003
▁Palermo	-11.5003
▁diagram	-11.5003
▁Seoul	-11.5003
▁Colony	-11.5003
▁afford	-11.5003
▁alternate	-11.5004
Russian	-11.5015
▁cappella	-11.5028
▁constellation	-11.5028
▁digit	-11.5048
▁Mikhail	-11.5053
▁Nixon	-11.5053
▁blind	-11.5053
piece	-11.5066
▁Newfoundland	-11.5078
▁submarine	-11.5078
▁junior	-11.5078
▁sulfur	-11.5078
▁accent	-11.508
▁shoe	-11.5086
Greek	-11.5091
first	-11.5091
second	-11.5096
walk	-11.51
▁translator	-11.5103
▁meteor	-11.5104
▁Cairo	-11.5104
▁empty	-11.5104
▁framework	-11.5104
▁Pearl	-11.5105
▁upgrade	-11.5114
English	-11.5117
▁absorption	-11.5129
▁obvious	-11.5129
▁Delaware	-11.5129
▁qualified	-11.5129
▁surname	-11.5129
through	-11.5142
▁exploration	-11.5154
▁cardiac	-11.5154
▁Squad	-11.5154
ennial	-11.5159
▁adolescence	-11.518
▁attitude	-11.518
▁nineteenth	-11.518
▁Liberty	-11.518
▁Zelda	-11.518
▁gathered	-11.518
▁Monroe	-11.518
▁facing	-11.518
▁Vegas	-11.5181
MLB	-11.5184
chroma	-11.5188
▁Chelsea	-11.5205
▁minimal	-11.5205
▁alumni	-11.5206
United	-11.522
▁Istanbul	-11.5231
▁autumn	-11.5231
▁decisive	-11.5231
▁geometry	-11.5231
▁expelled	-11.5231
▁fifty	-11.5231
execut	-11.5243
Japanese	-11.5246
▁Locke	-11.5247
claim	-11.525
▁uncertain	-11.5257
▁desktop	-11.5257
▁significance	-11.5257
▁inspiration	-11.5257
▁Watson	-11.5257
▁Dennis	-11.5257
▁deliberate	-11.5282
▁mystery	-11.5282
▁purple	-11.5283
▁Winners	-11.5283
▁accord	-11.5292
▁Admiral	-11.5308
▁widow	-11.5308
▁skull	-11.5308
▁Contemporary	-11.5334
▁Stockholm	-11.5334
▁Wikipedia	-11.5334
▁participation	-11.5334
▁MPEG	-11.5334
▁promoting	-11.5334
▁decorated	-11.5334
▁Sierra	-11.5334
Lithuanian	-11.5358
▁memorial	-11.536
▁circular	-11.536
▁NCAA	-11.536
lecommunications	-11.5379
▁Neolithic	-11.5386
▁fabric	-11.5386
▁smell	-11.5387
▁glyc	-11.5393
▁recall	-11.5405
▁Lisbon	-11.5413
▁inhibit	-11.5413
produced	-11.5438
▁Financial	-11.5438
▁aesthetic	-11.5438
▁cognitive	-11.5438
▁criteria	-11.5438
▁Protection	-11.5439
▁Stuart	-11.5439
▁syndrome	-11.5465
▁Baroque	-11.5465
▁delegate	-11.5466
▁float	-11.5467
▁Associate	-11.5491
▁philanthropist	-11.5491
▁slope	-11.5491
||13||	-11.5497
product	-11.5507
▁libraries	-11.5517
▁Tunisia	-11.5518
▁Blanc	-11.5528
▁ambassador	-11.5544
▁clause	-11.5544
▁beauty	-11.5544
▁Faith	-11.5545
terrorism	-11.5545
▁Electro	-11.557
▁renowned	-11.557
▁disturb	-11.557
▁overthrow	-11.5571
▁acclaim	-11.5571
soluble	-11.5571
▁Heaven	-11.5572
▁Rabbi	-11.5579
building	-11.5585
family	-11.5589
length	-11.5591
▁skeleton	-11.5597
▁temporarily	-11.5597
▁Nashville	-11.5597
▁Appeal	-11.5597
▁LINEAR	-11.5624
▁harbor	-11.5624
▁bulk	-11.5625
▁explosive	-11.565
▁reptiles	-11.565
▁Kenneth	-11.565
▁Chemical	-11.565
▁cruise	-11.5651
▁injuries	-11.5651
▁prophet	-11.5651
▁silk	-11.5652
▁bowl	-11.5657
▁Seleucid	-11.5677
▁archaeological	-11.5677
▁ministry	-11.5677
▁Amazon	-11.5677
▁Rugby	-11.5677
▁HIV	-11.5677
▁terminat	-11.5683
▁resolve	-11.5688
▁Kazakhstan	-11.5704
▁Scandinavia	-11.5704
▁comparative	-11.5704
▁lieutenant	-11.5704
▁mercury	-11.5704
▁intensity	-11.5704
▁cortex	-11.5704
▁friction	-11.5704
▁(2010)	-11.5704
resistant	-11.5725
simplified	-11.5731
▁acoustic	-11.5731
▁maintenance	-11.5731
▁integration	-11.5758
▁recipient	-11.5758
▁devoted	-11.5758
▁(2004)	-11.5758
▁skyscraper	-11.5785
▁eldest	-11.5785
▁Cartoon	-11.5785
▁harvest	-11.5812
▁Nikolai	-11.5812
▁Linux	-11.5812
▁(2003)	-11.5812
▁(2011)	-11.5813
▁aggressive	-11.584
▁Depression	-11.584
▁measuring	-11.584
▁computing	-11.584
▁Miguel	-11.584
▁compress	-11.5861
▁demonstrate	-11.5864
▁concrete	-11.5867
▁compilation	-11.5867
▁coronation	-11.5867
▁Policy	-11.5867
gatherer	-11.5872
▁Franc	-11.5877
▁Amendment	-11.5894
▁availability	-11.5894
▁pharmaceutical	-11.5894
▁Gustav	-11.5895
▁mortgage	-11.5922
▁guilty	-11.5922
▁segregat	-11.5922
▁Bristol	-11.5922
▁Technical	-11.5922
▁fraud	-11.5922
▁enacted	-11.5922
▁Constantine	-11.5949
▁batteries	-11.5949
▁Bolivia	-11.5949
▁prevalent	-11.5949
▁cavity	-11.5949
▁ultimate	-11.5957
Chinese	-11.5972
▁enormous	-11.5977
▁recreation	-11.5977
▁Heavy	-11.5978
||12||	-11.5989
South	-11.6003
▁Buffalo	-11.6005
▁ESPN	-11.6005
▁Frankfurt	-11.6005
▁galaxy	-11.6005
▁Campaign	-11.6005
▁Commerce	-11.6005
▁groove	-11.6005
▁Alpine	-11.6005
▁merger	-11.6005
▁Stefan	-11.6006
▁invertebrate	-11.6032
▁Wednesday	-11.6032
▁Liberation	-11.6033
▁fission	-11.6033
▁Dalai	-11.6034
▁Valentin	-11.6035
▁Philippine	-11.6059
▁Mitchell	-11.606
▁Professional	-11.606
▁complicated	-11.606
▁comprising	-11.606
▁Siberia	-11.6062
drop	-11.6078
||16||	-11.6079
▁sculptor	-11.6088
▁Socorro	-11.6088
▁phosphor	-11.6088
▁Mickey	-11.6088
▁Release	-11.6089
▁confirm	-11.6101
▁Chancellor	-11.6116
▁diamond	-11.6116
▁tributary	-11.6116
▁discharge	-11.6116
▁knock	-11.6116
▁eighteen	-11.6116
▁Source	-11.6117
▁deemed	-11.6117
▁Liberia	-11.612
▁Meitei	-11.6123
▁Exchange	-11.6144
▁Morocco	-11.6144
▁Nickelodeon	-11.6144
▁Private	-11.6144
Yokohama	-11.6173
▁Religious	-11.6173
▁renewed	-11.6173
▁mandate	-11.6192
▁Filipino	-11.6201
▁cylinder	-11.6201
▁vascular	-11.6201
▁Gerald	-11.6201
operative	-11.6225
Portuguese	-11.6226
▁Bonaparte	-11.6229
▁spelling	-11.6229
▁linguist	-11.6242
▁mystic	-11.6244
▁equilibrium	-11.6258
▁iPhone	-11.6258
▁routine	-11.6258
▁Cricket	-11.6258
▁Einstein	-11.6258
Primera	-11.6263
evolution	-11.6277
▁Shadow	-11.6286
▁Austro	-11.6287
▁ceremonial	-11.6315
▁declining	-11.6315
▁describing	-11.6315
▁intervention	-11.6315
▁dominance	-11.6315
▁Screen	-11.6315
▁shirt	-11.6315
Vision	-11.6327
League	-11.6341
▁|2006/07||	-11.6343
stronomical	-11.6343
▁manifest	-11.6343
▁persecution	-11.6343
▁powder	-11.6343
▁Initially	-11.6343
dimensional	-11.6366
▁freezing	-11.6372
▁Adolf	-11.6372
alpine	-11.6377
▁flora	-11.6385
▁Cinema	-11.6389
▁Gorbachev	-11.6401
▁hemisphere	-11.6401
▁stimulate	-11.6401
▁transcription	-11.6401
phosphate	-11.6401
▁completion	-11.6401
▁Yugoslav	-11.6417
▁Cincinnati	-11.643
▁heterosexual	-11.643
▁integral	-11.643
▁survivor	-11.643
▁carriage	-11.643
▁Harvey	-11.643
▁modification	-11.643
▁scandal	-11.643
▁Wheel	-11.643
▁(2002)	-11.643
▁managing	-11.643
▁(2000)	-11.643
pproximately	-11.6449
▁overlap	-11.6452
▁elephant	-11.6459
▁Memphis	-11.6459
▁Tulsa	-11.6459
▁Giovanni	-11.6488
▁abundant	-11.6488
▁diffusion	-11.6488
▁twentieth	-11.6488
▁Famicom	-11.6488
▁confusion	-11.6488
▁Cameron	-11.6488
▁cancelled	-11.6488
▁|2009||	-11.6488
Bissau	-11.6489
text	-11.649
▁|1995||	-11.6494
▁skate	-11.6497
▁|1994/95||	-11.6517
▁Campbell	-11.6517
▁competitor	-11.6517
▁doubt	-11.6517
▁dream	-11.6517
JSL	-11.6523
▁abandon	-11.6533
9,000	-11.6537
▁acquisition	-11.6546
▁erosion	-11.6546
▁Historian	-11.6546
▁Boulevard	-11.6575
▁Mahayana	-11.6575
▁ceramic	-11.6575
▁ethno	-11.6603
▁Nuclear	-11.6605
economic	-11.6605
▁(2001)	-11.6605
▁(2009)	-11.6605
▁Whig	-11.6606
Qaeda	-11.6607
optera	-11.661
tribution	-11.6629
original	-11.6634
▁automatically	-11.6634
▁Limited	-11.6634
▁dominate	-11.6663
▁wheat	-11.6664
▁Archaeo	-11.6669
▁Hiroshima	-11.6694
▁biodiversity	-11.6694
▁peripheral	-11.6694
▁vegetation	-11.6694
▁qualities	-11.6694
▁collision	-11.6694
▁dubbed	-11.6694
▁nominal	-11.6696
▁interfere	-11.6699
▁commemorate	-11.6723
▁relevant	-11.6723
▁temperate	-11.6723
▁ideology	-11.6724
▁monster	-11.6724
||15||	-11.6724
▁Agriculture	-11.6753
▁Caucasus	-11.6753
▁eukaryotic	-11.6753
▁crucial	-11.6753
▁portrait	-11.6753
▁Ahmed	-11.6753
▁monasteries	-11.6783
▁empirical	-11.6813
▁intermediate	-11.6813
▁navigation	-11.6813
▁demographic	-11.6813
▁Idaho	-11.6813
▁remix	-11.6813
hausen	-11.6817
▁Agreement	-11.6843
▁Cornwall	-11.6843
▁shield	-11.6843
▁supplied	-11.6843
▁burial	-11.6844
▁Relations	-11.6844
▁Drake	-11.6844
specific	-11.6846
▁Swaziland	-11.6874
▁apparatus	-11.6874
▁petroleum	-11.6874
▁primitive	-11.6874
▁qualification	-11.6874
▁terrain	-11.6874
▁ticket	-11.6874
▁Maratha	-11.6874
▁Sparta	-11.6896
▁incumbent	-11.6904
▁triangle	-11.6904
▁(2013)	-11.6904
▁Shrine	-11.6904
▁insulin	-11.6904
▁Appalachian	-11.6934
▁Montgomery	-11.6934
▁accelerate	-11.6934
▁cooperation	-11.6934
▁inferior	-11.6934
▁lesbian	-11.6934
▁physiological	-11.6934
▁cytoplasm	-11.6934
▁RAF	-11.6934
▁worse	-11.6936
requiring	-11.6936
quarter	-11.6937
▁Glasgow	-11.6965
▁cleric	-11.6974
▁Yankee	-11.6995
▁enterprise	-11.6995
▁Academic	-11.6995
▁remake	-11.6996
▁width	-11.6996
▁prospect	-11.6996
fefef	-11.6996
public	-11.7016
▁Cameroon	-11.7026
▁Ottawa	-11.7026
▁Alzheimer	-11.7026
▁feminist	-11.7026
▁Bacteria	-11.7026
▁Monument	-11.7026
Crazy	-11.7031
▁Bohemia	-11.7054
▁profound	-11.7057
▁subdivision	-11.7057
▁prominence	-11.7057
▁Ghost	-11.7057
}	-11.7086
“	-12.3581
<	-12.4585
ć	-12.6264
ã	-12.8088
ñ	-13.2044
